{
  "version": "1.0",
  "truncation": null,
  "padding": null,
  "added_tokens": [
    {
      "id": 0,
      "content": "[PAD]",
      "single_word": false,
      "lstrip": false,
      "rstrip": false,
      "normalized": false,
      "special": true
    },
    {
      "id": 1,
      "content": "[UNK]",
      "single_word": false,
      "lstrip": false,
      "rstrip": false,
      "normalized": false,
      "special": true
    },
    {
      "id": 2,
      "content": "[BOS]",
      "single_word": false,
      "lstrip": false,
      "rstrip": false,
      "normalized": false,
      "special": true
    },
    {
      "id": 3,
      "content": "[EOS]",
      "single_word": false,
      "lstrip": false,
      "rstrip": false,
      "normalized": false,
      "special": true
    }
  ],
  "normalizer": {
    "type": "Sequence",
    "normalizers": [
      {
        "type": "NFD"
      },
      {
        "type": "Lowercase"
      }
    ]
  },
  "pre_tokenizer": {
    "type": "Whitespace"
  },
  "post_processor": {
    "type": "TemplateProcessing",
    "single": [
      {
        "SpecialToken": {
          "id": "[BOS]",
          "type_id": 0
        }
      },
      {
        "Sequence": {
          "id": "A",
          "type_id": 0
        }
      },
      {
        "SpecialToken": {
          "id": "[EOS]",
          "type_id": 0
        }
      }
    ],
    "pair": [
      {
        "Sequence": {
          "id": "A",
          "type_id": 0
        }
      },
      {
        "Sequence": {
          "id": "B",
          "type_id": 1
        }
      }
    ],
    "special_tokens": {
      "[BOS]": {
        "id": "[BOS]",
        "ids": [
          2
        ],
        "tokens": [
          "[BOS]"
        ]
      },
      "[EOS]": {
        "id": "[EOS]",
        "ids": [
          3
        ],
        "tokens": [
          "[EOS]"
        ]
      }
    }
  },
  "decoder": null,
  "model": {
    "type": "BPE",
    "dropout": null,
    "unk_token": "[UNK]",
    "continuing_subword_prefix": null,
    "end_of_word_suffix": null,
    "fuse_unk": false,
    "byte_fallback": false,
    "vocab": {
      "[PAD]": 0,
      "[UNK]": 1,
      "[BOS]": 2,
      "[EOS]": 3,
      "!": 4,
      "\"": 5,
      "#": 6,
      "$": 7,
      "%": 8,
      "&": 9,
      "'": 10,
      "(": 11,
      ")": 12,
      "*": 13,
      "+": 14,
      ",": 15,
      "-": 16,
      ".": 17,
      "/": 18,
      "0": 19,
      "1": 20,
      "2": 21,
      "3": 22,
      "4": 23,
      "5": 24,
      "6": 25,
      "7": 26,
      "8": 27,
      "9": 28,
      ":": 29,
      ";": 30,
      "=": 31,
      "?": 32,
      "@": 33,
      "[": 34,
      "]": 35,
      "_": 36,
      "a": 37,
      "b": 38,
      "c": 39,
      "d": 40,
      "e": 41,
      "f": 42,
      "g": 43,
      "h": 44,
      "i": 45,
      "j": 46,
      "k": 47,
      "l": 48,
      "m": 49,
      "n": 50,
      "o": 51,
      "p": 52,
      "q": 53,
      "r": 54,
      "s": 55,
      "t": 56,
      "u": 57,
      "v": 58,
      "w": 59,
      "x": 60,
      "y": 61,
      "z": 62,
      "": 63,
      "": 64,
      "¡": 65,
      "£": 66,
      "ø": 67,
      "̀": 68,
      "́": 69,
      "̂": 70,
      "̃": 71,
      "̄": 72,
      "̆": 73,
      "̈": 74,
      "̊": 75,
      "̌": 76,
      "̧": 77,
      "ย": 78,
      "ร": 79,
      "อ": 80,
      "่": 81,
      "–": 82,
      "—": 83,
      "…": 84,
      "€": 85,
      "你": 86,
      "葱": 87,
      "送": 88,
      "th": 89,
      "in": 90,
      "the": 91,
      "an": 92,
      "re": 93,
      "at": 94,
      "ou": 95,
      "on": 96,
      "er": 97,
      "to": 98,
      "is": 99,
      "and": 100,
      "en": 101,
      "al": 102,
      "ing": 103,
      "it": 104,
      "or": 105,
      "es": 106,
      "of": 107,
      "as": 108,
      "ar": 109,
      "ed": 110,
      "le": 111,
      "we": 112,
      "that": 113,
      "st": 114,
      "se": 115,
      "you": 116,
      "wh": 117,
      "om": 118,
      "ic": 119,
      "ve": 120,
      "be": 121,
      "ow": 122,
      "ly": 123,
      "ac": 124,
      "ion": 125,
      "ha": 126,
      "so": 127,
      "ll": 128,
      "ent": 129,
      "he": 130,
      "me": 131,
      "this": 132,
      "ld": 133,
      "li": 134,
      "ut": 135,
      "ver": 136,
      "ch": 137,
      "ay": 138,
      "ot": 139,
      "id": 140,
      "for": 141,
      "ab": 142,
      "ro": 143,
      "wi": 144,
      "ge": 145,
      "ke": 146,
      "are": 147,
      "out": 148,
      "gh": 149,
      "lo": 150,
      "pe": 151,
      "all": 152,
      "they": 153,
      "ne": 154,
      "mo": 155,
      "do": 156,
      "was": 157,
      "go": 158,
      "ir": 159,
      "de": 160,
      "un": 161,
      "ri": 162,
      "ome": 163,
      "ce": 164,
      "us": 165,
      "if": 166,
      "one": 167,
      "with": 168,
      "ally": 169,
      "now": 170,
      "im": 171,
      "fe": 172,
      "op": 173,
      "what": 174,
      "but": 175,
      "have": 176,
      "am": 177,
      "can": 178,
      "ter": 179,
      "our": 180,
      "wor": 181,
      "ct": 182,
      "ad": 183,
      "ation": 184,
      "con": 185,
      "te": 186,
      "--": 187,
      "thing": 188,
      "ght": 189,
      "tr": 190,
      "su": 191,
      "ther": 192,
      "ca": 193,
      "ould": 194,
      "very": 195,
      "fr": 196,
      "ant": 197,
      "there": 198,
      "about": 199,
      "ma": 200,
      "act": 201,
      "my": 202,
      "not": 203,
      "per": 204,
      "com": 205,
      "pro": 206,
      "ul": 207,
      "ex": 208,
      "art": 209,
      "some": 210,
      "oun": 211,
      "ust": 212,
      "use": 213,
      "pl": 214,
      "ol": 215,
      "ind": 216,
      "ur": 217,
      "il": 218,
      "how": 219,
      "ok": 220,
      "od": 221,
      "ess": 222,
      "peop": 223,
      "people": 224,
      "like": 225,
      "ain": 226,
      "ate": 227,
      "from": 228,
      "ig": 229,
      "no": 230,
      "ye": 231,
      "ity": 232,
      "sa": 233,
      "est": 234,
      "man": 235,
      "qu": 236,
      "ive": 237,
      "res": 238,
      "po": 239,
      "way": 240,
      "ag": 241,
      "up": 242,
      "just": 243,
      "gr": 244,
      "these": 245,
      "beca": 246,
      "when": 247,
      "ink": 248,
      "ci": 249,
      "know": 250,
      "get": 251,
      "them": 252,
      "ide": 253,
      "ers": 254,
      "ist": 255,
      "who": 256,
      "because": 257,
      "ill": 258,
      "see": 259,
      "by": 260,
      "think": 261,
      "ti": 262,
      "co": 263,
      "ment": 264,
      "ap": 265,
      "ure": 266,
      "ound": 267,
      "more": 268,
      "ars": 269,
      "ren": 270,
      "your": 271,
      "sh": 272,
      "ich": 273,
      "other": 274,
      "end": 275,
      "sp": 276,
      "work": 277,
      "whe": 278,
      "going": 279,
      "had": 280,
      "ine": 281,
      "red": 282,
      "fo": 283,
      "would": 284,
      "br": 285,
      "here": 286,
      "ack": 287,
      "ort": 288,
      "their": 289,
      "look": 290,
      "ta": 291,
      "which": 292,
      "than": 293,
      "were": 294,
      "pp": 295,
      "really": 296,
      "want": 297,
      "day": 298,
      "ually": 299,
      "world": 300,
      "ble": 301,
      "age": 302,
      "ous": 303,
      "ast": 304,
      "then": 305,
      "00": 306,
      "ev": 307,
      "ies": 308,
      "tor": 309,
      "ple": 310,
      "der": 311,
      "em": 312,
      "where": 313,
      "every": 314,
      "ard": 315,
      "ach": 316,
      "time": 317,
      "ans": 318,
      "don": 319,
      "pr": 320,
      "reat": 321,
      "iv": 322,
      "own": 323,
      "has": 324,
      "ace": 325,
      "um": 326,
      "iz": 327,
      "ough": 328,
      "bo": 329,
      "new": 330,
      "ph": 331,
      "able": 332,
      "actually": 333,
      "say": 334,
      "any": 335,
      "ions": 336,
      "king": 337,
      "et": 338,
      "will": 339,
      "could": 340,
      "ong": 341,
      "cent": 342,
      "into": 343,
      "she": 344,
      "tw": 345,
      "did": 346,
      "ence": 347,
      "el": 348,
      "years": 349,
      "well": 350,
      "things": 351,
      "ight": 352,
      "tal": 353,
      "right": 354,
      "ild": 355,
      "bu": 356,
      "itt": 357,
      "sel": 358,
      "dif": 359,
      "his": 360,
      "happ": 361,
      "ical": 362,
      "ice": 363,
      "make": 364,
      "ose": 365,
      "most": 366,
      "need": 367,
      "ie": 368,
      "ite": 369,
      "chan": 370,
      "part": 371,
      "put": 372,
      "fir": 373,
      "dis": 374,
      "been": 375,
      "feren": 376,
      "come": 377,
      "gu": 378,
      "mu": 379,
      "af": 380,
      "two": 381,
      "start": 382,
      "ree": 383,
      "over": 384,
      "ud": 385,
      "try": 386,
      "back": 387,
      "said": 388,
      "log": 389,
      "first": 390,
      "sy": 391,
      "str": 392,
      "bl": 393,
      "cl": 394,
      "form": 395,
      "something": 396,
      "ass": 397,
      "cr": 398,
      "int": 399,
      "life": 400,
      "those": 401,
      "call": 402,
      "ves": 403,
      "much": 404,
      "differen": 405,
      "got": 406,
      "ho": 407,
      "ia": 408,
      "ber": 409,
      "ign": 410,
      "also": 411,
      "hu": 412,
      "let": 413,
      "ens": 414,
      "her": 415,
      "bod": 416,
      "pre": 417,
      "spe": 418,
      "ty": 419,
      "ater": 420,
      "kind": 421,
      "lot": 422,
      "imp": 423,
      "bet": 424,
      "des": 425,
      "even": 426,
      "ving": 427,
      "ittle": 428,
      "little": 429,
      "thr": 430,
      "cho": 431,
      "pos": 432,
      "many": 433,
      "only": 434,
      "gen": 435,
      "cre": 436,
      "si": 437,
      "ful": 438,
      "under": 439,
      "show": 440,
      "coun": 441,
      "ts": 442,
      "ep": 443,
      "take": 444,
      "ated": 445,
      "tell": 446,
      "body": 447,
      "rest": 448,
      "why": 449,
      "ck": 450,
      "lear": 451,
      "good": 452,
      "ob": 453,
      "hi": 454,
      "inter": 455,
      "self": 456,
      "its": 457,
      "real": 458,
      "ting": 459,
      "ish": 460,
      "ect": 461,
      "does": 462,
      "through": 463,
      "different": 464,
      "cont": 465,
      "mar": 466,
      "stand": 467,
      "talk": 468,
      "comm": 469,
      "read": 470,
      "pt": 471,
      "around": 472,
      "may": 473,
      "son": 474,
      "down": 475,
      "off": 476,
      "du": 477,
      "cess": 478,
      "vi": 479,
      "tory": 480,
      "being": 481,
      "ms": 482,
      "tur": 483,
      "ick": 484,
      "ase": 485,
      "ict": 486,
      "ning": 487,
      "aw": 488,
      "human": 489,
      "wr": 490,
      "ought": 491,
      "pres": 492,
      "tri": 493,
      "dr": 494,
      "side": 495,
      "ations": 496,
      "als": 497,
      "car": 498,
      "ire": 499,
      "fa": 500,
      "sur": 501,
      "big": 502,
      "proble": 503,
      "fore": 504,
      "sci": 505,
      "ue": 506,
      "year": 507,
      "stem": 508,
      "happen": 509,
      "same": 510,
      "fl": 511,
      "ak": 512,
      "lect": 513,
      "med": 514,
      "soci": 515,
      "min": 516,
      "three": 517,
      "great": 518,
      "tim": 519,
      "ps": 520,
      "thank": 521,
      "ces": 522,
      "ject": 523,
      "col": 524,
      "sto": 525,
      "ask": 526,
      "comp": 527,
      "eng": 528,
      "ents": 529,
      "child": 530,
      "system": 531,
      "pa": 532,
      "tech": 533,
      "ower": 534,
      "find": 535,
      "less": 536,
      "ance": 537,
      "doing": 538,
      "quest": 539,
      "fact": 540,
      "ways": 541,
      "ser": 542,
      "exper": 543,
      "fin": 544,
      "cour": 545,
      "sol": 546,
      "ys": 547,
      "after": 548,
      "xt": 549,
      "percent": 550,
      "mon": 551,
      "ary": 552,
      "ef": 553,
      "wom": 554,
      "long": 555,
      "ved": 556,
      "ically": 557,
      "stud": 558,
      "cer": 559,
      "cor": 560,
      "brain": 561,
      "build": 562,
      "called": 563,
      "again": 564,
      "bi": 565,
      "sm": 566,
      "sha": 567,
      "inv": 568,
      "light": 569,
      "ics": 570,
      "today": 571,
      "inte": 572,
      "made": 573,
      "ger": 574,
      "ds": 575,
      "bit": 576,
      "vers": 577,
      "should": 578,
      "ating": 579,
      "creat": 580,
      "hel": 581,
      "bas": 582,
      "logy": 583,
      "change": 584,
      "ual": 585,
      "ates": 586,
      "import": 587,
      "cul": 588,
      "person": 589,
      "cal": 590,
      "fect": 591,
      "ition": 592,
      "arch": 593,
      "ial": 594,
      "turn": 595,
      "illion": 596,
      "ever": 597,
      "ear": 598,
      "sing": 599,
      "play": 600,
      "used": 601,
      "old": 602,
      "az": 603,
      "last": 604,
      "inst": 605,
      "ted": 606,
      "imag": 607,
      "ities": 608,
      "feel": 609,
      "didn": 610,
      "power": 611,
      "fun": 612,
      "thought": 613,
      "mean": 614,
      "important": 615,
      "pu": 616,
      "ave": 617,
      "cond": 618,
      "ip": 619,
      "idea": 620,
      "amer": 621,
      "produ": 622,
      "ra": 623,
      "times": 624,
      "ise": 625,
      "beli": 626,
      "point": 627,
      "icul": 628,
      "high": 629,
      "before": 630,
      "started": 631,
      "design": 632,
      "scho": 633,
      "exam": 634,
      "understand": 635,
      "school": 636,
      "les": 637,
      "techno": 638,
      "na": 639,
      "found": 640,
      "bab": 641,
      "give": 642,
      "dec": 643,
      "kes": 644,
      "went": 645,
      "gan": 646,
      "pol": 647,
      "hand": 648,
      "ction": 649,
      "ile": 650,
      "story": 651,
      "plan": 652,
      "interest": 653,
      "mat": 654,
      "ize": 655,
      "might": 656,
      "another": 657,
      "never": 658,
      "him": 659,
      "mor": 660,
      "kid": 661,
      "place": 662,
      "ven": 663,
      "fam": 664,
      "problem": 665,
      "course": 666,
      "alth": 667,
      "cell": 668,
      "sim": 669,
      "better": 670,
      "ily": 671,
      "vir": 672,
      "still": 673,
      "000": 674,
      "help": 675,
      "par": 676,
      "each": 677,
      "ss": 678,
      "vis": 679,
      "velo": 680,
      "next": 681,
      "land": 682,
      "ago": 683,
      "ists": 684,
      "10": 685,
      "came": 686,
      "learn": 687,
      "ility": 688,
      "au": 689,
      "commun": 690,
      "toge": 691,
      "love": 692,
      "together": 693,
      "stru": 694,
      "few": 695,
      "pat": 696,
      "net": 697,
      "uni": 698,
      "20": 699,
      "ry": 700,
      "cy": 701,
      "book": 702,
      "care": 703,
      "ween": 704,
      "develo": 705,
      "ian": 706,
      "num": 707,
      "uc": 708,
      "ons": 709,
      "too": 710,
      "dat": 711,
      "che": 712,
      "four": 713,
      "ness": 714,
      "nat": 715,
      "comple": 716,
      "mus": 717,
      "cur": 718,
      "won": 719,
      "jo": 720,
      "women": 721,
      "trans": 722,
      "between": 723,
      "water": 724,
      "ience": 725,
      "att": 726,
      "gy": 727,
      "question": 728,
      "bal": 729,
      "ense": 730,
      "eve": 731,
      "mom": 732,
      "ors": 733,
      "develop": 734,
      "19": 735,
      "sort": 736,
      "ited": 737,
      "live": 738,
      "di": 739,
      "ica": 740,
      "grow": 741,
      "gener": 742,
      "room": 743,
      "led": 744,
      "ution": 745,
      "data": 746,
      "mind": 747,
      "ward": 748,
      "tain": 749,
      "fri": 750,
      "ins": 751,
      "possi": 752,
      "iness": 753,
      "rel": 754,
      "mal": 755,
      "comes": 756,
      "clo": 757,
      "face": 758,
      "av": 759,
      "aph": 760,
      "ines": 761,
      "gre": 762,
      "formation": 763,
      "maybe": 764,
      "using": 765,
      "oney": 766,
      "ized": 767,
      "ff": 768,
      "example": 769,
      "children": 770,
      "ures": 771,
      "ments": 772,
      "chang": 773,
      "home": 774,
      "nor": 775,
      "ress": 776,
      "aut": 777,
      "econ": 778,
      "small": 779,
      "technology": 780,
      "econom": 781,
      "ters": 782,
      "bus": 783,
      "mis": 784,
      "looking": 785,
      "done": 786,
      "head": 787,
      "move": 788,
      "giv": 789,
      "doesn": 790,
      "war": 791,
      "bot": 792,
      "ath": 793,
      "pri": 794,
      "yes": 795,
      "men": 796,
      "comput": 797,
      "reas": 798,
      "wanted": 799,
      "selves": 800,
      "bre": 801,
      "vie": 802,
      "far": 803,
      "working": 804,
      "search": 805,
      "ote": 806,
      "lt": 807,
      "believe": 808,
      "port": 809,
      "wal": 810,
      "always": 811,
      "ner": 812,
      "money": 813,
      "friend": 814,
      "ings": 815,
      "teach": 816,
      "ks": 817,
      "ten": 818,
      "second": 819,
      "project": 820,
      "reme": 821,
      "health": 822,
      "line": 823,
      "ced": 824,
      "lar": 825,
      "atch": 826,
      "lim": 827,
      "away": 828,
      "set": 829,
      "aren": 830,
      "ls": 831,
      "val": 832,
      "five": 833,
      "whole": 834,
      "ific": 835,
      "food": 836,
      "bor": 837,
      "information": 838,
      "ross": 839,
      "run": 840,
      "country": 841,
      "kids": 842,
      "ft": 843,
      "afr": 844,
      "create": 845,
      "publ": 846,
      "open": 847,
      "organ": 848,
      "ational": 849,
      "sk": 850,
      "tra": 851,
      "trying": 852,
      "everything": 853,
      "lead": 854,
      "space": 855,
      "..": 856,
      "ious": 857,
      "cri": 858,
      "graph": 859,
      "million": 860,
      "pect": 861,
      "und": 862,
      "eas": 863,
      "hal": 864,
      "pict": 865,
      "top": 866,
      "exp": 867,
      "doll": 868,
      "cu": 869,
      "low": 870,
      "vide": 871,
      "means": 872,
      "conne": 873,
      "aces": 874,
      "sub": 875,
      "ener": 876,
      "ries": 877,
      "making": 878,
      "pret": 879,
      "50": 880,
      "ban": 881,
      "process": 882,
      "ute": 883,
      "tru": 884,
      "anim": 885,
      "ones": 886,
      "cept": 887,
      "social": 888,
      "sure": 889,
      "pass": 890,
      "contro": 891,
      "mber": 892,
      "ident": 893,
      "glo": 894,
      "lan": 895,
      "ative": 896,
      "air": 897,
      "hard": 898,
      "fut": 899,
      "coming": 900,
      "become": 901,
      "gg": 902,
      "thinking": 903,
      "science": 904,
      "number": 905,
      "dri": 906,
      "took": 907,
      "pop": 908,
      "char": 909,
      "best": 910,
      "pho": 911,
      "quite": 912,
      "future": 913,
      "llow": 914,
      "elect": 915,
      "ism": 916,
      "add": 917,
      "stu": 918,
      "reg": 919,
      "grou": 920,
      "ital": 921,
      "says": 922,
      "pon": 923,
      "probab": 924,
      "la": 925,
      "view": 926,
      "enough": 927,
      "lives": 928,
      "left": 929,
      "getting": 930,
      "tries": 931,
      "energy": 932,
      "city": 933,
      "den": 934,
      "gover": 935,
      "cus": 936,
      "while": 937,
      "fu": 938,
      "month": 939,
      "ah": 940,
      "tern": 941,
      "ready": 942,
      "half": 943,
      "vo": 944,
      "ouse": 945,
      "ctor": 946,
      "leg": 947,
      "allow": 948,
      "without": 949,
      "research": 950,
      "beg": 951,
      "possible": 952,
      "ices": 953,
      "ga": 954,
      "okay": 955,
      "keep": 956,
      "iting": 957,
      "govern": 958,
      "ible": 959,
      "probably": 960,
      "list": 961,
      "speci": 962,
      "business": 963,
      "sound": 964,
      "answ": 965,
      "sense": 966,
      "moment": 967,
      "case": 968,
      "pie": 969,
      "200": 970,
      "cle": 971,
      "job": 972,
      "interesting": 973,
      "ican": 974,
      "educ": 975,
      "prof": 976,
      "wa": 977,
      "scient": 978,
      "music": 979,
      "makes": 980,
      "happened": 981,
      "countries": 982,
      "talking": 983,
      "beaut": 984,
      "cap": 985,
      "imagine": 986,
      "mic": 987,
      "issu": 988,
      "pretty": 989,
      "envir": 990,
      "photo": 991,
      "environ": 992,
      "wee": 993,
      "mother": 994,
      "sum": 995,
      "polit": 996,
      "dollars": 997,
      "ken": 998,
      "hour": 999,
      "yet": 1000,
      "told": 1001,
      "ris": 1002,
      "mode": 1003,
      "youn": 1004,
      "reason": 1005,
      "inc": 1006,
      "ina": 1007,
      "ying": 1008,
      "gir": 1009,
      "earth": 1010,
      "stre": 1011,
      "experience": 1012,
      "ability": 1013,
      "such": 1014,
      "respon": 1015,
      "ket": 1016,
      "bro": 1017,
      "har": 1018,
      "hope": 1019,
      "cha": 1020,
      "cells": 1021,
      "simple": 1022,
      "global": 1023,
      "langu": 1024,
      "else": 1025,
      "building": 1026,
      "sign": 1027,
      "across": 1028,
      "works": 1029,
      "press": 1030,
      "verse": 1031,
      "unt": 1032,
      "saw": 1033,
      "fort": 1034,
      "connect": 1035,
      "ug": 1036,
      "once": 1037,
      "living": 1038,
      "words": 1039,
      "ided": 1040,
      "phys": 1041,
      "watch": 1042,
      "ately": 1043,
      "vel": 1044,
      "inside": 1045,
      "stuff": 1046,
      "30": 1047,
      "gram": 1048,
      "public": 1049,
      "video": 1050,
      "ext": 1051,
      "mid": 1052,
      "asked": 1053,
      "certain": 1054,
      "bring": 1055,
      "struct": 1056,
      "fig": 1057,
      "mach": 1058,
      "family": 1059,
      "oh": 1060,
      "six": 1061,
      "ili": 1062,
      "present": 1063,
      "ang": 1064,
      "anything": 1065,
      "state": 1066,
      "ural": 1067,
      "later": 1068,
      "ince": 1069,
      "ird": 1070,
      "fac": 1071,
      "bad": 1072,
      "heart": 1073,
      "popul": 1074,
      "amaz": 1075,
      "sit": 1076,
      "young": 1077,
      "ator": 1078,
      "uring": 1079,
      "pain": 1080,
      "suc": 1081,
      "ety": 1082,
      "goes": 1083,
      "icular": 1084,
      "environment": 1085,
      "happens": 1086,
      "vol": 1087,
      "ention": 1088,
      "having": 1089,
      "ality": 1090,
      "cou": 1091,
      "wrong": 1092,
      "days": 1093,
      "blo": 1094,
      "iter": 1095,
      "seen": 1096,
      "din": 1097,
      "house": 1098,
      "particular": 1099,
      "inste": 1100,
      "single": 1101,
      "within": 1102,
      "someone": 1103,
      "app": 1104,
      "wonder": 1105,
      "uro": 1106,
      "ash": 1107,
      "complete": 1108,
      "equ": 1109,
      "problems": 1110,
      "states": 1111,
      "gn": 1112,
      "thous": 1113,
      "pris": 1114,
      "effect": 1115,
      "night": 1116,
      "met": 1117,
      "whether": 1118,
      "class": 1119,
      "thousand": 1120,
      "supp": 1121,
      "nothing": 1122,
      "demo": 1123,
      "product": 1124,
      "computer": 1125,
      "ivid": 1126,
      "ants": 1127,
      "fron": 1128,
      "tom": 1129,
      "ient": 1130,
      "begin": 1131,
      "billion": 1132,
      "often": 1133,
      "fil": 1134,
      "hear": 1135,
      "answer": 1136,
      "myself": 1137,
      "lab": 1138,
      "looked": 1139,
      "everybody": 1140,
      "hold": 1141,
      "picture": 1142,
      "ilt": 1143,
      "basically": 1144,
      "test": 1145,
      "planet": 1146,
      "acy": 1147,
      "saying": 1148,
      "mater": 1149,
      "kill": 1150,
      "word": 1151,
      "ages": 1152,
      "both": 1153,
      "tem": 1154,
      "remember": 1155,
      "fi": 1156,
      "expl": 1157,
      "ideas": 1158,
      "serv": 1159,
      "dan": 1160,
      "walk": 1161,
      "aud": 1162,
      "ange": 1163,
      "language": 1164,
      "dist": 1165,
      "ture": 1166,
      "almost": 1167,
      "ste": 1168,
      "true": 1169,
      "ling": 1170,
      "bed": 1171,
      "treat": 1172,
      "itive": 1173,
      "order": 1174,
      "community": 1175,
      "law": 1176,
      "io": 1177,
      "iful": 1178,
      "exact": 1179,
      "ously": 1180,
      "cost": 1181,
      "free": 1182,
      "control": 1183,
      "oper": 1184,
      "gets": 1185,
      "matter": 1186,
      "dle": 1187,
      "bio": 1188,
      "unch": 1189,
      "africa": 1190,
      "individ": 1191,
      "disco": 1192,
      "amazing": 1193,
      "dep": 1194,
      "spend": 1195,
      "incred": 1196,
      "ground": 1197,
      "history": 1198,
      "sw": 1199,
      "heard": 1200,
      "gl": 1201,
      "sou": 1202,
      "built": 1203,
      "beautiful": 1204,
      "dire": 1205,
      "entire": 1206,
      "group": 1207,
      "chall": 1208,
      "ering": 1209,
      "bar": 1210,
      "plic": 1211,
      "pay": 1212,
      "utes": 1213,
      "sometimes": 1214,
      "national": 1215,
      "ship": 1216,
      "dev": 1217,
      "ury": 1218,
      "contin": 1219,
      "already": 1220,
      "engine": 1221,
      "electr": 1222,
      "looks": 1223,
      "guy": 1224,
      "government": 1225,
      "sho": 1226,
      "hund": 1227,
      "united": 1228,
      "hundred": 1229,
      "hy": 1230,
      "decided": 1231,
      "until": 1232,
      "stories": 1233,
      "instead": 1234,
      "robot": 1235,
      "middle": 1236,
      "train": 1237,
      "piece": 1238,
      "success": 1239,
      "action": 1240,
      "experim": 1241,
      "mil": 1242,
      "nam": 1243,
      "program": 1244,
      "education": 1245,
      "taking": 1246,
      "figure": 1247,
      "tool": 1248,
      "share": 1249,
      "large": 1250,
      "bers": 1251,
      "since": 1252,
      "mag": 1253,
      "father": 1254,
      "resu": 1255,
      "sex": 1256,
      "follow": 1257,
      "prot": 1258,
      "clear": 1259,
      "evol": 1260,
      "society": 1261,
      "100": 1262,
      "squ": 1263,
      "bur": 1264,
      "dam": 1265,
      "months": 1266,
      "bly": 1267,
      "wasn": 1268,
      "woman": 1269,
      "couple": 1270,
      "gest": 1271,
      "cut": 1272,
      "appro": 1273,
      "everyone": 1274,
      "ben": 1275,
      "friends": 1276,
      "inno": 1277,
      "collect": 1278,
      "nature": 1279,
      "mer": 1280,
      "aster": 1281,
      "huge": 1282,
      "paren": 1283,
      "though": 1284,
      "minutes": 1285,
      "ield": 1286,
      "key": 1287,
      "internet": 1288,
      "sun": 1289,
      "somebody": 1290,
      "must": 1291,
      "became": 1292,
      "universe": 1293,
      "isn": 1294,
      "front": 1295,
      "ton": 1296,
      "incre": 1297,
      "beha": 1298,
      "cancer": 1299,
      "speak": 1300,
      "stop": 1301,
      "green": 1302,
      "exactly": 1303,
      "fer": 1304,
      "ivity": 1305,
      "ark": 1306,
      "name": 1307,
      "quick": 1308,
      "learned": 1309,
      "meet": 1310,
      "past": 1311,
      "team": 1312,
      "cam": 1313,
      "themselves": 1314,
      "created": 1315,
      "ush": 1316,
      "mill": 1317,
      "oc": 1318,
      "complex": 1319,
      "cord": 1320,
      "behavi": 1321,
      "pot": 1322,
      "bs": 1323,
      "por": 1324,
      "listen": 1325,
      "sc": 1326,
      "china": 1327,
      "ization": 1328,
      "indust": 1329,
      "completely": 1330,
      "rad": 1331,
      "adv": 1332,
      "hor": 1333,
      "places": 1334,
      "study": 1335,
      "univers": 1336,
      "diff": 1337,
      "god": 1338,
      "fre": 1339,
      "level": 1340,
      "game": 1341,
      "street": 1342,
      "appe": 1343,
      "happening": 1344,
      "questions": 1345,
      "third": 1346,
      "exc": 1347,
      "hours": 1348,
      "wind": 1349,
      "others": 1350,
      "fly": 1351,
      "knew": 1352,
      "phone": 1353,
      "bon": 1354,
      "grand": 1355,
      "against": 1356,
      "news": 1357,
      "happy": 1358,
      "fully": 1359,
      "step": 1360,
      "model": 1361,
      "typ": 1362,
      "mess": 1363,
      "mass": 1364,
      "democr": 1365,
      "rather": 1366,
      "ional": 1367,
      "dro": 1368,
      "ming": 1369,
      "ues": 1370,
      "ory": 1371,
      "coll": 1372,
      "kinds": 1373,
      "american": 1374,
      "itself": 1375,
      "acc": 1376,
      "shows": 1377,
      "students": 1378,
      "close": 1379,
      "ied": 1380,
      "paper": 1381,
      "yeah": 1382,
      "flu": 1383,
      "ease": 1384,
      "fic": 1385,
      "ourselves": 1386,
      "opport": 1387,
      "turns": 1388,
      "...": 1389,
      "company": 1390,
      "systems": 1391,
      "opportun": 1392,
      "difference": 1393,
      "innov": 1394,
      "aid": 1395,
      "scal": 1396,
      "itting": 1397,
      "ail": 1398,
      "ien": 1399,
      "worked": 1400,
      "bir": 1401,
      "sens": 1402,
      "dig": 1403,
      "cogn": 1404,
      "black": 1405,
      "seven": 1406,
      "expect": 1407,
      "jour": 1408,
      "text": 1409,
      "vision": 1410,
      "explain": 1411,
      "sion": 1412,
      "object": 1413,
      "15": 1414,
      "meas": 1415,
      "thousands": 1416,
      "gave": 1417,
      "que": 1418,
      "uses": 1419,
      "ples": 1420,
      "mark": 1421,
      "fall": 1422,
      "drug": 1423,
      "fail": 1424,
      "compan": 1425,
      "difficul": 1426,
      "clim": 1427,
      "eat": 1428,
      "dre": 1429,
      "deep": 1430,
      "impro": 1431,
      "full": 1432,
      "hind": 1433,
      "death": 1434,
      "istic": 1435,
      "couldn": 1436,
      "disease": 1437,
      "learning": 1438,
      "jor": 1439,
      "finally": 1440,
      "cir": 1441,
      "simp": 1442,
      "india": 1443,
      "relation": 1444,
      "depend": 1445,
      "liter": 1446,
      "acter": 1447,
      "based": 1448,
      "during": 1449,
      "deal": 1450,
      "field": 1451,
      "changed": 1452,
      "dom": 1453,
      "along": 1454,
      "amoun": 1455,
      "issue": 1456,
      "oil": 1457,
      "haps": 1458,
      "lu": 1459,
      "america": 1460,
      "ared": 1461,
      "perhaps": 1462,
      "colle": 1463,
      "machine": 1464,
      "euro": 1465,
      "pred": 1466,
      "main": 1467,
      "viol": 1468,
      "natural": 1469,
      "psy": 1470,
      "row": 1471,
      "outside": 1472,
      "century": 1473,
      "early": 1474,
      "decis": 1475,
      "path": 1476,
      "turned": 1477,
      "population": 1478,
      "behavior": 1479,
      "emot": 1480,
      "powerful": 1481,
      "ork": 1482,
      "emp": 1483,
      "pur": 1484,
      "rich": 1485,
      "given": 1486,
      "takes": 1487,
      "40": 1488,
      "sid": 1489,
      "lots": 1490,
      "species": 1491,
      "var": 1492,
      "ze": 1493,
      "stage": 1494,
      "ential": 1495,
      "tail": 1496,
      "invest": 1497,
      "short": 1498,
      "culture": 1499,
      "draw": 1500,
      "lish": 1501,
      "reli": 1502,
      "atic": 1503,
      "super": 1504,
      "recent": 1505,
      "guys": 1506,
      "tors": 1507,
      "obvi": 1508,
      "protect": 1509,
      "os": 1510,
      "aged": 1511,
      "ni": 1512,
      "box": 1513,
      "aring": 1514,
      "audience": 1515,
      "sent": 1516,
      "trad": 1517,
      "least": 1518,
      "yourself": 1519,
      "break": 1520,
      "spect": 1521,
      "ians": 1522,
      "economic": 1523,
      "plant": 1524,
      "knowled": 1525,
      "known": 1526,
      "ade": 1527,
      "win": 1528,
      "ases": 1529,
      "mole": 1530,
      "easy": 1531,
      "animals": 1532,
      "ith": 1533,
      "ier": 1534,
      "behind": 1535,
      "post": 1536,
      "week": 1537,
      "ats": 1538,
      "personal": 1539,
      "girl": 1540,
      "memor": 1541,
      "dream": 1542,
      "bri": 1543,
      "ele": 1544,
      "vered": 1545,
      "image": 1546,
      "companies": 1547,
      "12": 1548,
      "york": 1549,
      "defin": 1550,
      "realized": 1551,
      "stay": 1552,
      "ither": 1553,
      "non": 1554,
      "ames": 1555,
      "incl": 1556,
      "logical": 1557,
      "parents": 1558,
      "simply": 1559,
      "sle": 1560,
      "wards": 1561,
      "argu": 1562,
      "media": 1563,
      "explo": 1564,
      "18": 1565,
      "igh": 1566,
      "difficult": 1567,
      "needed": 1568,
      "pped": 1569,
      "pract": 1570,
      "ives": 1571,
      "experiment": 1572,
      "eight": 1573,
      "og": 1574,
      "size": 1575,
      "local": 1576,
      "augh": 1577,
      "sour": 1578,
      "verage": 1579,
      "exist": 1580,
      "astic": 1581,
      "needs": 1582,
      "leave": 1583,
      "moving": 1584,
      "ended": 1585,
      "communic": 1586,
      "cing": 1587,
      "gress": 1588,
      "tu": 1589,
      "major": 1590,
      "doctor": 1591,
      "felt": 1592,
      "posed": 1593,
      "eyes": 1594,
      "rem": 1595,
      "famili": 1596,
      "pen": 1597,
      "ral": 1598,
      "rent": 1599,
      "ordin": 1600,
      "invol": 1601,
      "support": 1602,
      "fight": 1603,
      "wo": 1604,
      "neur": 1605,
      "cks": 1606,
      "perfect": 1607,
      "board": 1608,
      "strong": 1609,
      "hands": 1610,
      "europe": 1611,
      "send": 1612,
      "access": 1613,
      "political": 1614,
      "sil": 1615,
      "type": 1616,
      "sed": 1617,
      "foot": 1618,
      "fast": 1619,
      "lling": 1620,
      "area": 1621,
      "ties": 1622,
      "pattern": 1623,
      "absol": 1624,
      "tract": 1625,
      "micro": 1626,
      "taken": 1627,
      "parts": 1628,
      "knowledge": 1629,
      "hip": 1630,
      "value": 1631,
      "photograph": 1632,
      "mul": 1633,
      "oce": 1634,
      "reach": 1635,
      "oud": 1636,
      "ney": 1637,
      "spir": 1638,
      "ju": 1639,
      "seeing": 1640,
      "absolute": 1641,
      "extra": 1642,
      "event": 1643,
      "ump": 1644,
      "leaders": 1645,
      "scale": 1646,
      "ny": 1647,
      "ots": 1648,
      "resour": 1649,
      "ished": 1650,
      "beginning": 1651,
      "ially": 1652,
      "rate": 1653,
      "blue": 1654,
      "voice": 1655,
      "force": 1656,
      "spent": 1657,
      "common": 1658,
      "film": 1659,
      "utions": 1660,
      "cannot": 1661,
      "bility": 1662,
      "safe": 1663,
      "grad": 1664,
      "growth": 1665,
      "ax": 1666,
      "flo": 1667,
      "sof": 1668,
      "idence": 1669,
      "ball": 1670,
      "ru": 1671,
      "moder": 1672,
      "books": 1673,
      "sis": 1674,
      "market": 1675,
      "longer": 1676,
      "cities": 1677,
      "cial": 1678,
      "hood": 1679,
      "ank": 1680,
      "wonderful": 1681,
      "bes": 1682,
      "ients": 1683,
      "pick": 1684,
      "stain": 1685,
      "born": 1686,
      "itions": 1687,
      "whatever": 1688,
      "surv": 1689,
      "bill": 1690,
      "fur": 1691,
      "ford": 1692,
      "pet": 1693,
      "fear": 1694,
      "amount": 1695,
      "wall": 1696,
      "began": 1697,
      "ribut": 1698,
      "conv": 1699,
      "quickly": 1700,
      "revol": 1701,
      "descri": 1702,
      "tic": 1703,
      "buy": 1704,
      "fire": 1705,
      "mp": 1706,
      "anal": 1707,
      "near": 1708,
      "sud": 1709,
      "cool": 1710,
      "medi": 1711,
      "profess": 1712,
      "pose": 1713,
      "center": 1714,
      "giving": 1715,
      "special": 1716,
      "sudden": 1717,
      "cop": 1718,
      "lost": 1719,
      "morning": 1720,
      "60": 1721,
      "dead": 1722,
      "feed": 1723,
      "terms": 1724,
      "print": 1725,
      "eye": 1726,
      "mit": 1727,
      "ature": 1728,
      "trave": 1729,
      "prom": 1730,
      "write": 1731,
      "die": 1732,
      "poor": 1733,
      "spec": 1734,
      "ired": 1735,
      "partic": 1736,
      "fine": 1737,
      "ox": 1738,
      "sat": 1739,
      "road": 1740,
      "surpris": 1741,
      "ances": 1742,
      "itect": 1743,
      "architect": 1744,
      "sl": 1745,
      "ination": 1746,
      "wouldn": 1747,
      "impact": 1748,
      "ring": 1749,
      "orig": 1750,
      "ster": 1751,
      "risk": 1752,
      "worth": 1753,
      "scre": 1754,
      "tow": 1755,
      "sleep": 1756,
      "rid": 1757,
      "rele": 1758,
      "forward": 1759,
      "images": 1760,
      "hon": 1761,
      "tried": 1762,
      "modern": 1763,
      "hosp": 1764,
      "either": 1765,
      "chr": 1766,
      "peace": 1767,
      "stat": 1768,
      "poll": 1769,
      "south": 1770,
      "itch": 1771,
      "solution": 1772,
      "scientists": 1773,
      "fish": 1774,
      "ught": 1775,
      "ane": 1776,
      "ilar": 1777,
      "growing": 1778,
      "ials": 1779,
      "vor": 1780,
      "sustain": 1781,
      "comb": 1782,
      "ively": 1783,
      "spread": 1784,
      "meaning": 1785,
      "opportunity": 1786,
      "ned": 1787,
      "vent": 1788,
      "recogn": 1789,
      "male": 1790,
      "average": 1791,
      "ses": 1792,
      "white": 1793,
      "attention": 1794,
      "structure": 1795,
      "situ": 1796,
      "tin": 1797,
      "measure": 1798,
      "camer": 1799,
      "sitting": 1800,
      "reality": 1801,
      "approach": 1802,
      "lands": 1803,
      "changes": 1804,
      "material": 1805,
      "hot": 1806,
      "ler": 1807,
      "mi": 1808,
      "interact": 1809,
      "weeks": 1810,
      "extreme": 1811,
      "sequ": 1812,
      "80": 1813,
      "gone": 1814,
      "telling": 1815,
      "individual": 1816,
      "inde": 1817,
      "enge": 1818,
      "feeling": 1819,
      "baby": 1820,
      "blood": 1821,
      "english": 1822,
      "solve": 1823,
      "aking": 1824,
      "economy": 1825,
      "animal": 1826,
      "dna": 1827,
      "ined": 1828,
      "brought": 1829,
      "da": 1830,
      "rup": 1831,
      "anyone": 1832,
      "instit": 1833,
      "physical": 1834,
      "developed": 1835,
      "gor": 1836,
      "crit": 1837,
      "interested": 1838,
      "climate": 1839,
      "je": 1840,
      "sugg": 1841,
      "cially": 1842,
      "favor": 1843,
      "suggest": 1844,
      "rain": 1845,
      "nice": 1846,
      "ror": 1847,
      "forest": 1848,
      "focus": 1849,
      "color": 1850,
      "track": 1851,
      "direct": 1852,
      "dark": 1853,
      "uals": 1854,
      "seems": 1855,
      "iction": 1856,
      "record": 1857,
      "save": 1858,
      "aging": 1859,
      "smart": 1860,
      "changing": 1861,
      "tradition": 1862,
      "boy": 1863,
      "humans": 1864,
      "writing": 1865,
      "playing": 1866,
      "asking": 1867,
      "developing": 1868,
      "tools": 1869,
      "sal": 1870,
      "affect": 1871,
      "position": 1872,
      "development": 1873,
      "running": 1874,
      "ond": 1875,
      "fair": 1876,
      "understanding": 1877,
      "girls": 1878,
      "fill": 1879,
      "flow": 1880,
      "challenge": 1881,
      "revolution": 1882,
      "ude": 1883,
      "creating": 1884,
      "incredible": 1885,
      "millions": 1886,
      "slow": 1887,
      "alone": 1888,
      "realize": 1889,
      "ators": 1890,
      "forms": 1891,
      "truth": 1892,
      "normal": 1893,
      "ouch": 1894,
      "online": 1895,
      "ung": 1896,
      "tele": 1897,
      "trust": 1898,
      "quality": 1899,
      "starting": 1900,
      "joy": 1901,
      "generation": 1902,
      "inese": 1903,
      "mine": 1904,
      "song": 1905,
      "espe": 1906,
      "terri": 1907,
      "numbers": 1908,
      "ocean": 1909,
      "ging": 1910,
      "soon": 1911,
      "wrote": 1912,
      "pan": 1913,
      "table": 1914,
      "ried": 1915,
      "produce": 1916,
      "benef": 1917,
      "invent": 1918,
      "issues": 1919,
      "band": 1920,
      "gal": 1921,
      "lay": 1922,
      "soph": 1923,
      "lies": 1924,
      "similar": 1925,
      "bottom": 1926,
      "mot": 1927,
      "guess": 1928,
      "chem": 1929,
      "general": 1930,
      "dy": 1931,
      "tend": 1932,
      "chinese": 1933,
      "relig": 1934,
      "rece": 1935,
      "likely": 1936,
      "innovation": 1937,
      "div": 1938,
      "eth": 1939,
      "lled": 1940,
      "consci": 1941,
      "literally": 1942,
      "sport": 1943,
      "ded": 1944,
      "nal": 1945,
      "vill": 1946,
      "requ": 1947,
      "express": 1948,
      "skill": 1949,
      "hundreds": 1950,
      "ordinary": 1951,
      "ensive": 1952,
      "ba": 1953,
      "cin": 1954,
      "west": 1955,
      "izing": 1956,
      "pal": 1957,
      "rul": 1958,
      "secre": 1959,
      "knows": 1960,
      "patient": 1961,
      "lad": 1962,
      "neigh": 1963,
      "ibly": 1964,
      "ref": 1965,
      "web": 1966,
      "convers": 1967,
      "current": 1968,
      "card": 1969,
      "ding": 1970,
      "confl": 1971,
      "emer": 1972,
      "auth": 1973,
      "11": 1974,
      "sand": 1975,
      "peri": 1976,
      "istan": 1977,
      "includ": 1978,
      "absolutely": 1979,
      "especially": 1980,
      "dim": 1981,
      "round": 1982,
      "medic": 1983,
      "network": 1984,
      "70": 1985,
      "areas": 1986,
      "sup": 1987,
      "seem": 1988,
      "patients": 1989,
      "movement": 1990,
      "dou": 1991,
      "gives": 1992,
      "university": 1993,
      "25": 1994,
      "arr": 1995,
      "icy": 1996,
      "count": 1997,
      "sounds": 1998,
      "tar": 1999,
      "bey": 2000,
      "serious": 2001,
      "experien": 2002,
      "technolog": 2003,
      "connected": 2004,
      "sea": 2005,
      "conf": 2006,
      "consid": 2007,
      "function": 2008,
      "tion": 2009,
      "touch": 2010,
      "wish": 2011,
      "moved": 2012,
      "90": 2013,
      "cars": 2014,
      "theory": 2015,
      "sli": 2016,
      "nobody": 2017,
      "discovered": 2018,
      "represent": 2019,
      "ley": 2020,
      "ular": 2021,
      "genet": 2022,
      "pictures": 2023,
      "result": 2024,
      "ped": 2025,
      "star": 2026,
      "showed": 2027,
      "push": 2028,
      "ony": 2029,
      "liz": 2030,
      "intro": 2031,
      "avail": 2032,
      "industry": 2033,
      "nine": 2034,
      "wide": 2035,
      "door": 2036,
      "carbon": 2037,
      "responsi": 2038,
      "feet": 2039,
      "happiness": 2040,
      "north": 2041,
      "teachers": 2042,
      "fortun": 2043,
      "predict": 2044,
      "molecul": 2045,
      "intell": 2046,
      "fold": 2047,
      "strate": 2048,
      "intellig": 2049,
      "dest": 2050,
      "games": 2051,
      "lea": 2052,
      "goog": 2053,
      "proper": 2054,
      "code": 2055,
      "fundam": 2056,
      "fundament": 2057,
      "ado": 2058,
      "ilo": 2059,
      "entially": 2060,
      "consum": 2061,
      "subject": 2062,
      "materials": 2063,
      "incredibly": 2064,
      "evolution": 2065,
      "east": 2066,
      "asing": 2067,
      "ased": 2068,
      "necess": 2069,
      "map": 2070,
      "challeng": 2071,
      "birth": 2072,
      "loc": 2073,
      "surface": 2074,
      "democracy": 2075,
      "indeed": 2076,
      "hit": 2077,
      "const": 2078,
      "tran": 2079,
      "aware": 2080,
      "compass": 2081,
      "potential": 2082,
      "source": 2083,
      "lam": 2084,
      "ese": 2085,
      "ches": 2086,
      "wait": 2087,
      "relationship": 2088,
      "moun": 2089,
      "une": 2090,
      "dog": 2091,
      "among": 2092,
      "mental": 2093,
      "talked": 2094,
      "transform": 2095,
      "recently": 2096,
      "obviously": 2097,
      "resources": 2098,
      "usion": 2099,
      "activ": 2100,
      "shi": 2101,
      "message": 2102,
      "gar": 2103,
      "haven": 2104,
      "beyond": 2105,
      "late": 2106,
      "office": 2107,
      "visual": 2108,
      "groups": 2109,
      "wood": 2110,
      "onto": 2111,
      "except": 2112,
      "ference": 2113,
      "resul": 2114,
      "ame": 2115,
      "detail": 2116,
      "pers": 2117,
      "cover": 2118,
      "chance": 2119,
      "choice": 2120,
      "shape": 2121,
      "joh": 2122,
      "danger": 2123,
      "involved": 2124,
      "schools": 2125,
      "attack": 2126,
      "psycho": 2127,
      "multi": 2128,
      "period": 2129,
      "google": 2130,
      "tot": 2131,
      "arm": 2132,
      "prov": 2133,
      "medical": 2134,
      "electric": 2135,
      "digital": 2136,
      "fant": 2137,
      "sam": 2138,
      "ences": 2139,
      "sold": 2140,
      "journey": 2141,
      "mand": 2142,
      "moral": 2143,
      "origin": 2144,
      "tiny": 2145,
      "cit": 2146,
      "ilities": 2147,
      "town": 2148,
      "technologies": 2149,
      "aim": 2150,
      "please": 2151,
      "azy": 2152,
      "rules": 2153,
      "available": 2154,
      "jud": 2155,
      "lines": 2156,
      "cause": 2157,
      "tre": 2158,
      "ham": 2159,
      "priv": 2160,
      "mechan": 2161,
      "walking": 2162,
      "violence": 2163,
      "sor": 2164,
      "sever": 2165,
      "concer": 2166,
      "mail": 2167,
      "creative": 2168,
      "projects": 2169,
      "situation": 2170,
      "dimens": 2171,
      "consider": 2172,
      "gent": 2173,
      "kets": 2174,
      "pping": 2175,
      "syn": 2176,
      "designed": 2177,
      "ran": 2178,
      "ghan": 2179,
      "ades": 2180,
      "concept": 2181,
      "anti": 2182,
      "teacher": 2183,
      "device": 2184,
      "screen": 2185,
      "conscious": 2186,
      "compassion": 2187,
      "iant": 2188,
      "lived": 2189,
      "ake": 2190,
      "hol": 2191,
      "ift": 2192,
      "progress": 2193,
      "agr": 2194,
      "everywhere": 2195,
      "drive": 2196,
      "memory": 2197,
      "cli": 2198,
      "eco": 2199,
      "ency": 2200,
      "ived": 2201,
      "individuals": 2202,
      "miles": 2203,
      "brid": 2204,
      "putting": 2205,
      "minute": 2206,
      "clean": 2207,
      "freed": 2208,
      "john": 2209,
      "gas": 2210,
      "lose": 2211,
      "cris": 2212,
      "suddenly": 2213,
      "lon": 2214,
      "icans": 2215,
      "tex": 2216,
      "passion": 2217,
      "author": 2218,
      "report": 2219,
      "becomes": 2220,
      "vert": 2221,
      "waste": 2222,
      "deli": 2223,
      "rial": 2224,
      "tells": 2225,
      "ged": 2226,
      "enter": 2227,
      "blind": 2228,
      "pair": 2229,
      "chair": 2230,
      "jap": 2231,
      "abor": 2232,
      "evidence": 2233,
      "bigger": 2234,
      "died": 2235,
      "stick": 2236,
      "abo": 2237,
      "scientific": 2238,
      "certainly": 2239,
      "hospital": 2240,
      "japan": 2241,
      "hun": 2242,
      "sphere": 2243,
      "bodies": 2244,
      "magic": 2245,
      "ners": 2246,
      "sco": 2247,
      "kept": 2248,
      "computers": 2249,
      "improve": 2250,
      "further": 2251,
      "results": 2252,
      "smo": 2253,
      "suff": 2254,
      "shop": 2255,
      "crazy": 2256,
      "reasons": 2257,
      "particip": 2258,
      "bacter": 2259,
      "ery": 2260,
      "stress": 2261,
      "adul": 2262,
      "anybody": 2263,
      "tware": 2264,
      "ption": 2265,
      "tural": 2266,
      "brains": 2267,
      "introdu": 2268,
      "freedom": 2269,
      "zer": 2270,
      "ably": 2271,
      "ival": 2272,
      "sym": 2273,
      "positive": 2274,
      "prison": 2275,
      "hum": 2276,
      "san": 2277,
      "sch": 2278,
      "towards": 2279,
      "college": 2280,
      "software": 2281,
      "chemical": 2282,
      "bat": 2283,
      "ges": 2284,
      "mir": 2285,
      "iss": 2286,
      "ows": 2287,
      "notice": 2288,
      "content": 2289,
      "talks": 2290,
      "basic": 2291,
      "square": 2292,
      "favorite": 2293,
      "wes": 2294,
      "income": 2295,
      "standard": 2296,
      "threat": 2297,
      "capt": 2298,
      "gt": 2299,
      "tv": 2300,
      "ites": 2301,
      "antly": 2302,
      "clin": 2303,
      "solar": 2304,
      "calcul": 2305,
      "citiz": 2306,
      "ides": 2307,
      "deter": 2308,
      "plants": 2309,
      "taught": 2310,
      "starts": 2311,
      "examples": 2312,
      "bank": 2313,
      "hiv": 2314,
      "mobi": 2315,
      "term": 2316,
      "biggest": 2317,
      "minis": 2318,
      "student": 2319,
      "allowed": 2320,
      "luck": 2321,
      "several": 2322,
      "bul": 2323,
      "faster": 2324,
      "pack": 2325,
      "rap": 2326,
      "speed": 2327,
      "surprising": 2328,
      "camera": 2329,
      "sect": 2330,
      "secur": 2331,
      "math": 2332,
      "apart": 2333,
      "choose": 2334,
      "believ": 2335,
      "particularly": 2336,
      "ore": 2337,
      "sus": 2338,
      "offe": 2339,
      "weight": 2340,
      "wash": 2341,
      "brit": 2342,
      "showing": 2343,
      "mountain": 2344,
      "ray": 2345,
      "vacc": 2346,
      "zz": 2347,
      "ene": 2348,
      "load": 2349,
      "mission": 2350,
      "eventually": 2351,
      "neighbor": 2352,
      "mers": 2353,
      "swe": 2354,
      "swi": 2355,
      "wild": 2356,
      "finan": 2357,
      "oid": 2358,
      "sess": 2359,
      "meth": 2360,
      "loved": 2361,
      "cru": 2362,
      "communities": 2363,
      "jobs": 2364,
      "drugs": 2365,
      "western": 2366,
      "mas": 2367,
      "tit": 2368,
      "infect": 2369,
      "rop": 2370,
      "fix": 2371,
      "tle": 2372,
      "uce": 2373,
      "vil": 2374,
      "comfort": 2375,
      "rais": 2376,
      "response": 2377,
      "glass": 2378,
      "totally": 2379,
      "lif": 2380,
      "loy": 2381,
      "ify": 2382,
      "labor": 2383,
      "decisions": 2384,
      "fas": 2385,
      "dete": 2386,
      "immedi": 2387,
      "agree": 2388,
      "carry": 2389,
      "minds": 2390,
      "region": 2391,
      "collabor": 2392,
      "specific": 2393,
      "dad": 2394,
      "rand": 2395,
      "xic": 2396,
      "neuro": 2397,
      "worse": 2398,
      "pover": 2399,
      "secret": 2400,
      "watching": 2401,
      "village": 2402,
      "security": 2403,
      "page": 2404,
      "sell": 2405,
      "prote": 2406,
      "park": 2407,
      "training": 2408,
      "remark": 2409,
      "context": 2410,
      "logist": 2411,
      "virt": 2412,
      "character": 2413,
      "rus": 2414,
      "van": 2415,
      "inci": 2416,
      "cape": 2417,
      "mak": 2418,
      "studies": 2419,
      "grew": 2420,
      "organiz": 2421,
      "skin": 2422,
      "traditional": 2423,
      "link": 2424,
      "task": 2425,
      "arab": 2426,
      "antic": 2427,
      "mathem": 2428,
      "foc": 2429,
      "international": 2430,
      "hom": 2431,
      "wise": 2432,
      "wants": 2433,
      "brother": 2434,
      "service": 2435,
      "named": 2436,
      "bom": 2437,
      "influ": 2438,
      "conds": 2439,
      "perform": 2440,
      "shown": 2441,
      "version": 2442,
      "decision": 2443,
      "vari": 2444,
      "conflict": 2445,
      "including": 2446,
      "fortunately": 2447,
      "crisis": 2448,
      "poverty": 2449,
      "cup": 2450,
      "cross": 2451,
      "hur": 2452,
      "activity": 2453,
      "perspect": 2454,
      "artist": 2455,
      "central": 2456,
      "buildings": 2457,
      "largest": 2458,
      "organization": 2459,
      "sky": 2460,
      "types": 2461,
      "trees": 2462,
      "daugh": 2463,
      "lat": 2464,
      "nuc": 2465,
      "insp": 2466,
      "stri": 2467,
      "separ": 2468,
      "bel": 2469,
      "meant": 2470,
      "wife": 2471,
      "discus": 2472,
      "rect": 2473,
      "movie": 2474,
      "cook": 2475,
      "cked": 2476,
      "effic": 2477,
      "points": 2478,
      "allows": 2479,
      "appear": 2480,
      "hop": 2481,
      "bud": 2482,
      "finding": 2483,
      "continue": 2484,
      "objects": 2485,
      "oxy": 2486,
      "mobile": 2487,
      "dav": 2488,
      "cold": 2489,
      "phen": 2490,
      "products": 2491,
      "temper": 2492,
      "bing": 2493,
      "nation": 2494,
      "saving": 2495,
      "lights": 2496,
      "politics": 2497,
      "16": 2498,
      "itary": 2499,
      "role": 2500,
      "usually": 2501,
      "afghan": 2502,
      "expensive": 2503,
      "radio": 2504,
      "extremely": 2505,
      "icle": 2506,
      "surger": 2507,
      "solutions": 2508,
      "americans": 2509,
      "truly": 2510,
      "engineering": 2511,
      "familiar": 2512,
      "cat": 2513,
      "cases": 2514,
      "fit": 2515,
      "associ": 2516,
      "vels": 2517,
      "amp": 2518,
      "engage": 2519,
      "conditions": 2520,
      "atory": 2521,
      "killed": 2522,
      "listening": 2523,
      "mous": 2524,
      "nut": 2525,
      "sme": 2526,
      "ama": 2527,
      "respect": 2528,
      "itten": 2529,
      "howe": 2530,
      "standing": 2531,
      "signific": 2532,
      "excited": 2533,
      "conversation": 2534,
      "supposed": 2535,
      "hall": 2536,
      "goal": 2537,
      "anymore": 2538,
      "reading": 2539,
      "earli": 2540,
      "david": 2541,
      "14": 2542,
      "cise": 2543,
      "hous": 2544,
      "muse": 2545,
      "rights": 2546,
      "famous": 2547,
      "african": 2548,
      "plicated": 2549,
      "lin": 2550,
      "lower": 2551,
      "inct": 2552,
      "brand": 2553,
      "unders": 2554,
      "models": 2555,
      "however": 2556,
      "13": 2557,
      "500": 2558,
      "hid": 2559,
      "wis": 2560,
      "alive": 2561,
      "provide": 2562,
      "courage": 2563,
      "plane": 2564,
      "machines": 2565,
      "continu": 2566,
      "exciting": 2567,
      "extraordinary": 2568,
      "above": 2569,
      "cas": 2570,
      "rise": 2571,
      "instru": 2572,
      "impossible": 2573,
      "princi": 2574,
      "production": 2575,
      "higher": 2576,
      "sorts": 2577,
      "robots": 2578,
      "successful": 2579,
      "ders": 2580,
      "eties": 2581,
      "ables": 2582,
      "neg": 2583,
      "deb": 2584,
      "ending": 2585,
      "philo": 2586,
      "stra": 2587,
      "societies": 2588,
      "pull": 2589,
      "raise": 2590,
      "travel": 2591,
      "skills": 2592,
      "mist": 2593,
      "pi": 2594,
      "arily": 2595,
      "somehow": 2596,
      "manage": 2597,
      "store": 2598,
      "strugg": 2599,
      "fascin": 2600,
      "museum": 2601,
      "philosoph": 2602,
      "faces": 2603,
      "scan": 2604,
      "trou": 2605,
      "anyway": 2606,
      "anywhere": 2607,
      "police": 2608,
      "policy": 2609,
      "capital": 2610,
      "doctors": 2611,
      "method": 2612,
      "slight": 2613,
      "seconds": 2614,
      "docu": 2615,
      "wheel": 2616,
      "strange": 2617,
      "hero": 2618,
      "families": 2619,
      "ky": 2620,
      "ric": 2621,
      "lying": 2622,
      "mem": 2623,
      "roy": 2624,
      "demon": 2625,
      "teen": 2626,
      "urban": 2627,
      "afford": 2628,
      "teaching": 2629,
      "healthy": 2630,
      "fundamental": 2631,
      "financial": 2632,
      "bunch": 2633,
      "sen": 2634,
      "sem": 2635,
      "iced": 2636,
      "iran": 2637,
      "essentially": 2638,
      "party": 2639,
      "trade": 2640,
      "pieces": 2641,
      "effective": 2642,
      "genetic": 2643,
      "ships": 2644,
      "def": 2645,
      "perfor": 2646,
      "proto": 2647,
      "somewhere": 2648,
      "plastic": 2649,
      "upon": 2650,
      "istics": 2651,
      "humanity": 2652,
      "series": 2653,
      "legal": 2654,
      "neurons": 2655,
      "ultim": 2656,
      "agno": 2657,
      "hole": 2658,
      "throughout": 2659,
      "treatment": 2660,
      "increasing": 2661,
      "swim": 2662,
      "nia": 2663,
      "wel": 2664,
      "president": 2665,
      "funny": 2666,
      "colleag": 2667,
      "explore": 2668,
      "gree": 2669,
      "none": 2670,
      "willing": 2671,
      "written": 2672,
      "massive": 2673,
      "critical": 2674,
      "straight": 2675,
      "performan": 2676,
      "larger": 2677,
      "distribut": 2678,
      "clearly": 2679,
      "journal": 2680,
      "random": 2681,
      "17": 2682,
      "ech": 2683,
      "becoming": 2684,
      "active": 2685,
      "actual": 2686,
      "fuel": 2687,
      "beauty": 2688,
      "patterns": 2689,
      "christ": 2690,
      "female": 2691,
      "deser": 2692,
      "genes": 2693,
      "babies": 2694,
      "recognize": 2695,
      "reflect": 2696,
      "bread": 2697,
      "base": 2698,
      "ito": 2699,
      "pes": 2700,
      "ann": 2701,
      "ira": 2702,
      "preci": 2703,
      "greater": 2704,
      "thanks": 2705,
      "connection": 2706,
      "spirit": 2707,
      "perspective": 2708,
      "site": 2709,
      "isra": 2710,
      "accept": 2711,
      "therefore": 2712,
      "corrup": 2713,
      "belief": 2714,
      "launch": 2715,
      "nur": 2716,
      "webs": 2717,
      "older": 2718,
      "industrial": 2719,
      "medicine": 2720,
      "vul": 2721,
      "compet": 2722,
      "shot": 2723,
      "achie": 2724,
      "unique": 2725,
      "smaller": 2726,
      "environmental": 2727,
      "occur": 2728,
      "molecules": 2729,
      "fantastic": 2730,
      "bol": 2731,
      "nic": 2732,
      "ified": 2733,
      "optim": 2734,
      "tered": 2735,
      "complicated": 2736,
      "speaking": 2737,
      "shared": 2738,
      "discover": 2739,
      "aust": 2740,
      "fle": 2741,
      "race": 2742,
      "resist": 2743,
      "integr": 2744,
      "crimin": 2745,
      "legs": 2746,
      "painting": 2747,
      "bacteria": 2748,
      "surgery": 2749,
      "atom": 2750,
      "roll": 2751,
      "depress": 2752,
      "creativity": 2753,
      "diagno": 2754,
      "scientist": 2755,
      "gradu": 2756,
      "architecture": 2757,
      "honest": 2758,
      "achieve": 2759,
      "fing": 2760,
      "arri": 2761,
      "liber": 2762,
      "trick": 2763,
      "cry": 2764,
      "throw": 2765,
      "contain": 2766,
      "akes": 2767,
      "final": 2768,
      "dangerous": 2769,
      "cis": 2770,
      "sad": 2771,
      "civi": 2772,
      "offic": 2773,
      "condition": 2774,
      "decades": 2775,
      "costs": 2776,
      "biology": 2777,
      "electricity": 2778,
      "immediately": 2779,
      "onic": 2780,
      "levels": 2781,
      "entre": 2782,
      "199": 2783,
      "increase": 2784,
      "organizations": 2785,
      "mathemat": 2786,
      "fro": 2787,
      "tood": 2788,
      "beat": 2789,
      "forth": 2790,
      "claim": 2791,
      "cultural": 2792,
      "practice": 2793,
      "understood": 2794,
      "performance": 2795,
      "website": 2796,
      "ered": 2797,
      "jump": 2798,
      "ping": 2799,
      "onom": 2800,
      "aries": 2801,
      "nel": 2802,
      "cele": 2803,
      "beings": 2804,
      "birds": 2805,
      "remarkable": 2806,
      "afghanistan": 2807,
      "gain": 2808,
      "stars": 2809,
      "related": 2810,
      "popular": 2811,
      "sustainable": 2812,
      "zero": 2813,
      "entrepre": 2814,
      "lap": 2815,
      "iti": 2816,
      "itation": 2817,
      "acity": 2818,
      "geo": 2819,
      "demand": 2820,
      "adap": 2821,
      "ustr": 2822,
      "stream": 2823,
      "services": 2824,
      "celebr": 2825,
      "blog": 2826,
      "cket": 2827,
      "habit": 2828,
      "summer": 2829,
      "earlier": 2830,
      "fat": 2831,
      "tree": 2832,
      "cloud": 2833,
      "following": 2834,
      "citizens": 2835,
      "hus": 2836,
      "mr": 2837,
      "nan": 2838,
      "hell": 2839,
      "forget": 2840,
      "traf": 2841,
      "cade": 2842,
      "iling": 2843,
      "shar": 2844,
      "ishing": 2845,
      "contribut": 2846,
      "paign": 2847,
      "transl": 2848,
      "physic": 2849,
      "evolved": 2850,
      "campaign": 2851,
      "intelligence": 2852,
      "daughter": 2853,
      "aper": 2854,
      "dance": 2855,
      "gs": 2856,
      "remain": 2857,
      "enjoy": 2858,
      "thern": 2859,
      "mention": 2860,
      "cali": 2861,
      "waiting": 2862,
      "direction": 2863,
      "mix": 2864,
      "television": 2865,
      "private": 2866,
      "infr": 2867,
      "omen": 2868,
      "suit": 2869,
      "spaces": 2870,
      "pleas": 2871,
      "boys": 2872,
      "gotten": 2873,
      "interview": 2874,
      "join": 2875,
      "broad": 2876,
      "walked": 2877,
      "military": 2878,
      "emotional": 2879,
      "coffe": 2880,
      "fash": 2881,
      "laugh": 2882,
      "wealth": 2883,
      "veh": 2884,
      "compe": 2885,
      "useful": 2886,
      "price": 2887,
      "curi": 2888,
      "harv": 2889,
      "challenges": 2890,
      "spo": 2891,
      "lie": 2892,
      "imm": 2893,
      "sharing": 2894,
      "logists": 2895,
      "crow": 2896,
      "prevent": 2897,
      "auto": 2898,
      "career": 2899,
      "sexual": 2900,
      "purpose": 2901,
      "bridge": 2902,
      "coffee": 2903,
      "cro": 2904,
      "mad": 2905,
      "thetic": 2906,
      "gold": 2907,
      "plac": 2908,
      "address": 2909,
      "vulner": 2910,
      "chris": 2911,
      "frame": 2912,
      "justice": 2913,
      "whose": 2914,
      "himself": 2915,
      "helped": 2916,
      "physics": 2917,
      "camp": 2918,
      "drop": 2919,
      "slightly": 2920,
      "eating": 2921,
      "rom": 2922,
      "tun": 2923,
      "ulate": 2924,
      "knowing": 2925,
      "choices": 2926,
      "versity": 2927,
      "match": 2928,
      "check": 2929,
      "driving": 2930,
      "dependent": 2931,
      "obvious": 2932,
      "focused": 2933,
      "nuclear": 2934,
      "email": 2935,
      "weren": 2936,
      "rob": 2937,
      "tery": 2938,
      "quar": 2939,
      "cles": 2940,
      "carto": 2941,
      "surround": 2942,
      "although": 2943,
      "attle": 2944,
      "values": 2945,
      "truct": 2946,
      "experiments": 2947,
      "invented": 2948,
      "phenomen": 2949,
      "smell": 2950,
      "21": 2951,
      "ium": 2952,
      "scr": 2953,
      "rock": 2954,
      "river": 2955,
      "embr": 2956,
      "speech": 2957,
      "classroom": 2958,
      "psych": 2959,
      "neighborhood": 2960,
      "inspired": 2961,
      "iraq": 2962,
      "cure": 2963,
      "catch": 2964,
      "yle": 2965,
      "insect": 2966,
      "conference": 2967,
      "techni": 2968,
      "decide": 2969,
      "networks": 2970,
      "motiv": 2971,
      "fashion": 2972,
      "ked": 2973,
      "mut": 2974,
      "moon": 2975,
      "fellow": 2976,
      "worry": 2977,
      "creates": 2978,
      "analy": 2979,
      "aur": 2980,
      "bound": 2981,
      "range": 2982,
      "anda": 2983,
      "select": 2984,
      "phones": 2985,
      "highly": 2986,
      "cycle": 2987,
      "custom": 2988,
      "answers": 2989,
      "meeting": 2990,
      "target": 2991,
      "24": 2992,
      "bits": 2993,
      "account": 2994,
      "hey": 2995,
      "plat": 2996,
      "manu": 2997,
      "bub": 2998,
      "facebook": 2999,
      "complexity": 3000,
      "comfortable": 3001,
      "cking": 3002,
      "ires": 3003,
      "lic": 3004,
      "islam": 3005,
      "bees": 3006,
      "note": 3007,
      "counter": 3008,
      "drink": 3009,
      "correct": 3010,
      "identity": 3011,
      "profit": 3012,
      "rule": 3013,
      "transport": 3014,
      "gun": 3015,
      "mars": 3016,
      "enor": 3017,
      "org": 3018,
      "decade": 3019,
      "unfortunately": 3020,
      "artists": 3021,
      "turning": 3022,
      "paid": 3023,
      "instance": 3024,
      "virus": 3025,
      "profound": 3026,
      "london": 3027,
      "temperature": 3028,
      "ahead": 3029,
      "cand": 3030,
      "dar": 3031,
      "dying": 3032,
      "hack": 3033,
      "isms": 3034,
      "ceed": 3035,
      "frank": 3036,
      "differences": 3037,
      "trial": 3038,
      "corpor": 3039,
      "dollar": 3040,
      "capacity": 3041,
      "spending": 3042,
      "streets": 3043,
      "flying": 3044,
      "scar": 3045,
      "wered": 3046,
      "ulation": 3047,
      "civil": 3048,
      "etc": 3049,
      "diseas": 3050,
      "breast": 3051,
      "survive": 3052,
      "galax": 3053,
      "slide": 3054,
      "mou": 3055,
      "tens": 3056,
      "ya": 3057,
      "greatest": 3058,
      "shares": 3059,
      "played": 3060,
      "original": 3061,
      "trouble": 3062,
      "reve": 3063,
      "loss": 3064,
      "unk": 3065,
      "worst": 3066,
      "concl": 3067,
      "commer": 3068,
      "ception": 3069,
      "plications": 3070,
      "various": 3071,
      "leadership": 3072,
      "gap": 3073,
      "ior": 3074,
      "narr": 3075,
      "held": 3076,
      "dered": 3077,
      "consequ": 3078,
      "rench": 3079,
      "brings": 3080,
      "mostly": 3081,
      "foreign": 3082,
      "aids": 3083,
      "floor": 3084,
      "terrible": 3085,
      "document": 3086,
      "traffic": 3087,
      "diseases": 3088,
      "era": 3089,
      "whal": 3090,
      "forces": 3091,
      "depart": 3092,
      "causes": 3093,
      "afraid": 3094,
      "published": 3095,
      "tube": 3096,
      "dynam": 3097,
      "corruption": 3098,
      "husband": 3099,
      "eli": 3100,
      "pound": 3101,
      "inspir": 3102,
      "weap": 3103,
      "stren": 3104,
      "contr": 3105,
      "noticed": 3106,
      "pros": 3107,
      "tax": 3108,
      "produced": 3109,
      "foundation": 3110,
      "possibly": 3111,
      "graphic": 3112,
      "copy": 3113,
      "cum": 3114,
      "master": 3115,
      "rough": 3116,
      "anci": 3117,
      "algor": 3118,
      "seed": 3119,
      "core": 3120,
      "twice": 3121,
      "lets": 3122,
      "posite": 3123,
      "advant": 3124,
      "communicate": 3125,
      "directly": 3126,
      "washing": 3127,
      "algorith": 3128,
      "300": 3129,
      "ime": 3130,
      "tes": 3131,
      "vic": 3132,
      "vast": 3133,
      "indian": 3134,
      "iger": 3135,
      "dram": 3136,
      "missing": 3137,
      "passed": 3138,
      "entrepreneur": 3139,
      "streng": 3140,
      "gay": 3141,
      "tum": 3142,
      "arian": 3143,
      "edge": 3144,
      "actions": 3145,
      "ends": 3146,
      "histor": 3147,
      "craf": 3148,
      "effort": 3149,
      "relative": 3150,
      "bringing": 3151,
      "members": 3152,
      "civiliz": 3153,
      "califor": 3154,
      "bone": 3155,
      "bag": 3156,
      "pil": 3157,
      "anth": 3158,
      "atmo": 3159,
      "below": 3160,
      "chick": 3161,
      "ider": 3162,
      "avoid": 3163,
      "devices": 3164,
      "collap": 3165,
      "nearly": 3166,
      "experiences": 3167,
      "necessary": 3168,
      "cast": 3169,
      "ently": 3170,
      "arts": 3171,
      "spot": 3172,
      "intu": 3173,
      "surve": 3174,
      "autism": 3175,
      "cule": 3176,
      "emotion": 3177,
      "institutions": 3178,
      "cate": 3179,
      "pas": 3180,
      "pite": 3181,
      "sector": 3182,
      "spin": 3183,
      "itted": 3184,
      "stopped": 3185,
      "compon": 3186,
      "closer": 3187,
      "communication": 3188,
      "pengu": 3189,
      "sorry": 3190,
      "gentle": 3191,
      "mouth": 3192,
      "california": 3193,
      "dp": 3194,
      "lf": 3195,
      "tissue": 3196,
      "ancy": 3197,
      "acade": 3198,
      "igr": 3199,
      "cooper": 3200,
      "reduce": 3201,
      "prise": 3202,
      "basis": 3203,
      "native": 3204,
      "expand": 3205,
      "hearing": 3206,
      "deliver": 3207,
      "colleagues": 3208,
      "vit": 3209,
      "wear": 3210,
      "construct": 3211,
      "conserv": 3212,
      "braz": 3213,
      "bert": 3214,
      "moments": 3215,
      "mothers": 3216,
      "detect": 3217,
      "oxygen": 3218,
      "lack": 3219,
      "rare": 3220,
      "trem": 3221,
      "return": 3222,
      "island": 3223,
      "astruct": 3224,
      "accord": 3225,
      "ards": 3226,
      "despite": 3227,
      "serve": 3228,
      "valu": 3229,
      "magaz": 3230,
      "opportunities": 3231,
      "molecule": 3232,
      "brill": 3233,
      "religion": 3234,
      "capture": 3235,
      "infrastruct": 3236,
      "ather": 3237,
      "hang": 3238,
      "jan": 3239,
      "mur": 3240,
      "sn": 3241,
      "tro": 3242,
      "tough": 3243,
      "accur": 3244,
      "ils": 3245,
      "yellow": 3246,
      "shift": 3247,
      "helping": 3248,
      "norm": 3249,
      "supply": 3250,
      "switch": 3251,
      "consciousness": 3252,
      "fed": 3253,
      "fab": 3254,
      "lunch": 3255,
      "uary": 3256,
      "attract": 3257,
      "hair": 3258,
      "degre": 3259,
      "ada": 3260,
      "grown": 3261,
      "invis": 3262,
      "feels": 3263,
      "broken": 3264,
      "metaph": 3265,
      "israel": 3266,
      "total": 3267,
      "oting": 3268,
      "sume": 3269,
      "prep": 3270,
      "mary": 3271,
      "studying": 3272,
      "addition": 3273,
      "structures": 3274,
      "programs": 3275,
      "lucky": 3276,
      "manufact": 3277,
      "ancient": 3278,
      "3d": 3279,
      "sia": 3280,
      "zen": 3281,
      "seas": 3282,
      "acce": 3283,
      "lied": 3284,
      "opposite": 3285,
      "grade": 3286,
      "diet": 3287,
      "insight": 3288,
      "brea": 3289,
      "governments": 3290,
      "emplo": 3291,
      "agricul": 3292,
      "significant": 3293,
      "degrees": 3294,
      "bought": 3295,
      "mam": 3296,
      "tan": 3297,
      "vict": 3298,
      "repe": 3299,
      "remind": 3300,
      "ison": 3301,
      "ising": 3302,
      "alter": 3303,
      "therap": 3304,
      "cies": 3305,
      "newsp": 3306,
      "forever": 3307,
      "importantly": 3308,
      "puzz": 3309,
      "miss": 3310,
      "leading": 3311,
      "failure": 3312,
      "emotions": 3313,
      "majority": 3314,
      "responsible": 3315,
      "austral": 3316,
      "victim": 3317,
      "fli": 3318,
      "itor": 3319,
      "ology": 3320,
      "pts": 3321,
      "vote": 3322,
      "astr": 3323,
      "exer": 3324,
      "commit": 3325,
      "dry": 3326,
      "imagination": 3327,
      "regular": 3328,
      "relationships": 3329,
      "rout": 3330,
      "sac": 3331,
      "sick": 3332,
      "tren": 3333,
      "otic": 3334,
      "opt": 3335,
      "compl": 3336,
      "resh": 3337,
      "marri": 3338,
      "colors": 3339,
      "intel": 3340,
      "cheap": 3341,
      "balance": 3342,
      "crime": 3343,
      "respond": 3344,
      "wisdom": 3345,
      "tremend": 3346,
      "date": 3347,
      "gri": 3348,
      "iers": 3349,
      "ened": 3350,
      "usual": 3351,
      "workers": 3352,
      "apply": 3353,
      "effects": 3354,
      "tempt": 3355,
      "laws": 3356,
      "determin": 3357,
      "cred": 3358,
      "heat": 3359,
      "wire": 3360,
      "gry": 3361,
      "strain": 3362,
      "creation": 3363,
      "lesson": 3364,
      "paral": 3365,
      "entirely": 3366,
      "window": 3367,
      "promise": 3368,
      "statistics": 3369,
      "benefits": 3370,
      "cod": 3371,
      "asia": 3372,
      "mosqu": 3373,
      "fran": 3374,
      "estim": 3375,
      "coast": 3376,
      "restaur": 3377,
      "differently": 3378,
      "easily": 3379,
      "block": 3380,
      "benefit": 3381,
      "require": 3382,
      "efficient": 3383,
      "enormous": 3384,
      "400": 3385,
      "french": 3386,
      "mort": 3387,
      "rat": 3388,
      "itude": 3389,
      "myster": 3390,
      "events": 3391,
      "background": 3392,
      "hibit": 3393,
      "due": 3394,
      "corner": 3395,
      "matters": 3396,
      "equal": 3397,
      "argument": 3398,
      "fighting": 3399,
      "professor": 3400,
      "rapid": 3401,
      "xico": 3402,
      "atmosphere": 3403,
      "gard": 3404,
      "nations": 3405,
      "atives": 3406,
      "station": 3407,
      "sets": 3408,
      "icking": 3409,
      "pressure": 3410,
      "males": 3411,
      "researchers": 3412,
      "describe": 3413,
      "relev": 3414,
      "british": 3415,
      "han": 3416,
      "itter": 3417,
      "assum": 3418,
      "icles": 3419,
      "chur": 3420,
      "ifically": 3421,
      "prior": 3422,
      "voices": 3423,
      "photos": 3424,
      "deeply": 3425,
      "domin": 3426,
      "definition": 3427,
      "houses": 3428,
      "infrastructure": 3429,
      "rot": 3430,
      "stor": 3431,
      "ening": 3432,
      "vere": 3433,
      "constru": 3434,
      "ager": 3435,
      "agers": 3436,
      "spring": 3437,
      "itely": 3438,
      "bled": 3439,
      "contact": 3440,
      "compared": 3441,
      "ysis": 3442,
      "diversity": 3443,
      "explor": 3444,
      "dreams": 3445,
      "landscape": 3446,
      "responsibility": 3447,
      "fascinating": 3448,
      "according": 3449,
      "mc": 3450,
      "nit": 3451,
      "rac": 3452,
      "tas": 3453,
      "incent": 3454,
      "reward": 3455,
      "metal": 3456,
      "terror": 3457,
      "ender": 3458,
      "limited": 3459,
      "politic": 3460,
      "frequ": 3461,
      "typical": 3462,
      "received": 3463,
      "suffering": 3464,
      "demonstr": 3465,
      "adapt": 3466,
      "strength": 3467,
      "invisible": 3468,
      "egg": 3469,
      "condu": 3470,
      "cope": 3471,
      "letter": 3472,
      "faith": 3473,
      "surge": 3474,
      "finished": 3475,
      "arent": 3476,
      "keeping": 3477,
      "distance": 3478,
      "biological": 3479,
      "shoes": 3480,
      "european": 3481,
      "soft": 3482,
      "adults": 3483,
      "ns": 3484,
      "rational": 3485,
      "users": 3486,
      "cons": 3487,
      "grab": 3488,
      "interaction": 3489,
      "childhood": 3490,
      "shouldn": 3491,
      "designer": 3492,
      "198": 3493,
      "breath": 3494,
      "accident": 3495,
      "remote": 3496,
      "raised": 3497,
      "negative": 3498,
      "department": 3499,
      "advantage": 3500,
      "brilliant": 3501,
      "mes": 3502,
      "zed": 3503,
      "assem": 3504,
      "meters": 3505,
      "conce": 3506,
      "illness": 3507,
      "covered": 3508,
      "gene": 3509,
      "offer": 3510,
      "techn": 3511,
      "visit": 3512,
      "organic": 3513,
      "drawing": 3514,
      "japanese": 3515,
      "virtual": 3516,
      "ultimately": 3517,
      "employe": 3518,
      "giant": 3519,
      "hill": 3520,
      "kil": 3521,
      "sight": 3522,
      "tour": 3523,
      "motor": 3524,
      "opin": 3525,
      "quant": 3526,
      "seemed": 3527,
      "coal": 3528,
      "apple": 3529,
      "genome": 3530,
      "paint": 3531,
      "hydro": 3532,
      "figured": 3533,
      "collective": 3534,
      "cognitive": 3535,
      "strategy": 3536,
      "destroy": 3537,
      "symbol": 3538,
      "fol": 3539,
      "hate": 3540,
      "rum": 3541,
      "wit": 3542,
      "replace": 3543,
      "heav": 3544,
      "geor": 3545,
      "unte": 3546,
      "worldwide": 3547,
      "proud": 3548,
      "married": 3549,
      "markets": 3550,
      "creatures": 3551,
      "possibility": 3552,
      "dinner": 3553,
      "holding": 3554,
      "daily": 3555,
      "protein": 3556,
      "insects": 3557,
      "brazil": 3558,
      "bow": 3559,
      "diction": 3560,
      "fif": 3561,
      "gdp": 3562,
      "ka": 3563,
      "ander": 3564,
      "aling": 3565,
      "veget": 3566,
      "moves": 3567,
      "qui": 3568,
      "quote": 3569,
      "shut": 3570,
      "empath": 3571,
      "partners": 3572,
      "bling": 3573,
      "formed": 3574,
      "epide": 3575,
      "compare": 3576,
      "paul": 3577,
      "farmers": 3578,
      "stuck": 3579,
      "volunte": 3580,
      "discovery": 3581,
      "circu": 3582,
      "perfectly": 3583,
      "depression": 3584,
      "45": 3585,
      "fresh": 3586,
      "mouse": 3587,
      "py": 3588,
      "rit": 3589,
      "ram": 3590,
      "zo": 3591,
      "aria": 3592,
      "stone": 3593,
      "managed": 3594,
      "ets": 3595,
      "swed": 3596,
      "democratic": 3597,
      "double": 3598,
      "hidden": 3599,
      "metaphor": 3600,
      "intellect": 3601,
      "tremendous": 3602,
      "fal": 3603,
      "esome": 3604,
      "arct": 3605,
      "meat": 3606,
      "los": 3607,
      "teles": 3608,
      "artific": 3609,
      "appreci": 3610,
      "everyday": 3611,
      "calls": 3612,
      "previ": 3613,
      "versus": 3614,
      "rooms": 3615,
      "graphy": 3616,
      "gather": 3617,
      "capable": 3618,
      "equip": 3619,
      "tempor": 3620,
      "failed": 3621,
      "investment": 3622,
      "necessarily": 3623,
      "construction": 3624,
      "weak": 3625,
      "stim": 3626,
      "concent": 3627,
      "tric": 3628,
      "qual": 3629,
      "grav": 3630,
      "whenever": 3631,
      "thinks": 3632,
      "click": 3633,
      "marke": 3634,
      "experts": 3635,
      "helps": 3636,
      "leads": 3637,
      "pected": 3638,
      "sites": 3639,
      "names": 3640,
      "billions": 3641,
      "fairly": 3642,
      "commercial": 3643,
      "magazine": 3644,
      "flight": 3645,
      "mart": 3646,
      "anced": 3647,
      "encies": 3648,
      "aspect": 3649,
      "section": 3650,
      "dol": 3651,
      "decl": 3652,
      "novel": 3653,
      "desire": 3654,
      "install": 3655,
      "mistry": 3656,
      "easier": 3657,
      "languages": 3658,
      "apped": 3659,
      "radi": 3660,
      "universal": 3661,
      "filled": 3662,
      "dimensional": 3663,
      "increasingly": 3664,
      "eper": 3665,
      "iest": 3666,
      "scul": 3667,
      "inj": 3668,
      "advert": 3669,
      "plus": 3670,
      "ques": 3671,
      "shif": 3672,
      "otherwise": 3673,
      "precise": 3674,
      "studied": 3675,
      "cult": 3676,
      "planning": 3677,
      "clock": 3678,
      "businesses": 3679,
      "hypo": 3680,
      "investig": 3681,
      "transp": 3682,
      "unex": 3683,
      "homes": 3684,
      "placed": 3685,
      "george": 3686,
      "equipment": 3687,
      "flies": 3688,
      "lung": 3689,
      "pill": 3690,
      "liked": 3691,
      "user": 3692,
      "notion": 3693,
      "umb": 3694,
      "impress": 3695,
      "awesome": 3696,
      "leader": 3697,
      "watched": 3698,
      "element": 3699,
      "ladies": 3700,
      "normally": 3701,
      "marriage": 3702,
      "75": 3703,
      "egy": 3704,
      "gi": 3705,
      "ami": 3706,
      "host": 3707,
      "facts": 3708,
      "expert": 3709,
      "cycl": 3710,
      "charge": 3711,
      "factory": 3712,
      "trained": 3713,
      "steps": 3714,
      "sister": 3715,
      "feedback": 3716,
      "leaving": 3717,
      "influence": 3718,
      "sate": 3719,
      "shad": 3720,
      "zing": 3721,
      "mexico": 3722,
      "define": 3723,
      "essential": 3724,
      "blow": 3725,
      "presents": 3726,
      "invited": 3727,
      "heads": 3728,
      "opened": 3729,
      "voc": 3730,
      "succeed": 3731,
      "appropri": 3732,
      "radical": 3733,
      "struggle": 3734,
      "satell": 3735,
      "bright": 3736,
      "scare": 3737,
      "wat": 3738,
      "bell": 3739,
      "soli": 3740,
      "losing": 3741,
      "degree": 3742,
      "puts": 3743,
      "asks": 3744,
      "20th": 3745,
      "generate": 3746,
      "economics": 3747,
      "planets": 3748,
      "electrical": 3749,
      "followed": 3750,
      "cutting": 3751,
      "circum": 3752,
      "entertain": 3753,
      "ii": 3754,
      "las": 3755,
      "wearing": 3756,
      "ops": 3757,
      "ads": 3758,
      "noise": 3759,
      "grid": 3760,
      "letters": 3761,
      "surprise": 3762,
      "prize": 3763,
      "opening": 3764,
      "subst": 3765,
      "angle": 3766,
      "horri": 3767,
      "argue": 3768,
      "convention": 3769,
      "expression": 3770,
      "seriously": 3771,
      "separate": 3772,
      "relevant": 3773,
      "150": 3774,
      "battle": 3775,
      "dial": 3776,
      "rural": 3777,
      "independent": 3778,
      "iding": 3779,
      "fell": 3780,
      "sugar": 3781,
      "pole": 3782,
      "izes": 3783,
      "aff": 3784,
      "obsess": 3785,
      "highest": 3786,
      "chemistry": 3787,
      "damage": 3788,
      "resource": 3789,
      "honor": 3790,
      "experienced": 3791,
      "vaccine": 3792,
      "australia": 3793,
      "einste": 3794,
      "nas": 3795,
      "spl": 3796,
      "thri": 3797,
      "libr": 3798,
      "pher": 3799,
      "twitter": 3800,
      "morrow": 3801,
      "setting": 3802,
      "begins": 3803,
      "sending": 3804,
      "survival": 3805,
      "professional": 3806,
      "surprised": 3807,
      "soldiers": 3808,
      "minister": 3809,
      "kne": 3810,
      "pul": 3811,
      "inner": 3812,
      "weird": 3813,
      "igno": 3814,
      "grain": 3815,
      "gue": 3816,
      "cortex": 3817,
      "imagin": 3818,
      "fourth": 3819,
      "malaria": 3820,
      "airplane": 3821,
      "driven": 3822,
      "engineers": 3823,
      "appeared": 3824,
      "violent": 3825,
      "currently": 3826,
      "location": 3827,
      "constantly": 3828,
      "hurt": 3829,
      "associated": 3830,
      "competition": 3831,
      "einstein": 3832,
      "bilities": 3833,
      "rs": 3834,
      "vig": 3835,
      "theater": 3836,
      "tomorrow": 3837,
      "army": 3838,
      "acters": 3839,
      "perce": 3840,
      "perception": 3841,
      "els": 3842,
      "organized": 3843,
      "characters": 3844,
      "fuge": 3845,
      "hopefully": 3846,
      "facing": 3847,
      "elements": 3848,
      "safety": 3849,
      "concerned": 3850,
      "susp": 3851,
      "phenomenon": 3852,
      "organs": 3853,
      "weapons": 3854,
      "dress": 3855,
      "gift": 3856,
      "snow": 3857,
      "arms": 3858,
      "enty": 3859,
      "peak": 3860,
      "iles": 3861,
      "bles": 3862,
      "shame": 3863,
      "shapes": 3864,
      "killing": 3865,
      "collection": 3866,
      "described": 3867,
      "analysis": 3868,
      "suggests": 3869,
      "multiple": 3870,
      "dimensions": 3871,
      "holes": 3872,
      "believed": 3873,
      "maker": 3874,
      "bubble": 3875,
      "washington": 3876,
      "church": 3877,
      "artificial": 3878,
      "sculpt": 3879,
      "bird": 3880,
      "eld": 3881,
      "iev": 3882,
      "pir": 3883,
      "thom": 3884,
      "atically": 3885,
      "weather": 3886,
      "bear": 3887,
      "forced": 3888,
      "unless": 3889,
      "maint": 3890,
      "berg": 3891,
      "studio": 3892,
      "patent": 3893,
      "musical": 3894,
      "transition": 3895,
      "farm": 3896,
      "identify": 3897,
      "kenya": 3898,
      "operating": 3899,
      "sides": 3900,
      "lady": 3901,
      "acceler": 3902,
      "kilome": 3903,
      "cow": 3904,
      "dot": 3905,
      "pin": 3906,
      "wow": 3907,
      "rely": 3908,
      "review": 3909,
      "belong": 3910,
      "actor": 3911,
      "hea": 3912,
      "abilities": 3913,
      "wik": 3914,
      "canada": 3915,
      "indic": 3916,
      "cents": 3917,
      "crack": 3918,
      "command": 3919,
      "england": 3920,
      "finish": 3921,
      "solved": 3922,
      "matic": 3923,
      "harder": 3924,
      "scene": 3925,
      "digit": 3926,
      "specifically": 3927,
      "leaves": 3928,
      "cartoon": 3929,
      "craft": 3930,
      "witness": 3931,
      "mates": 3932,
      "pac": 3933,
      "tons": 3934,
      "vas": 3935,
      "insu": 3936,
      "refuge": 3937,
      "root": 3938,
      "adam": 3939,
      "acts": 3940,
      "whereas": 3941,
      "viet": 3942,
      "cular": 3943,
      "player": 3944,
      "attach": 3945,
      "warm": 3946,
      "charles": 3947,
      "horse": 3948,
      "slowly": 3949,
      "employees": 3950,
      "unexpected": 3951,
      "gment": 3952,
      "mate": 3953,
      "ron": 3954,
      "za": 3955,
      "accoun": 3956,
      "liqu": 3957,
      "saur": 3958,
      "hasn": 3959,
      "phil": 3960,
      "mush": 3961,
      "transformation": 3962,
      "generations": 3963,
      "closed": 3964,
      "election": 3965,
      "2008": 3966,
      "wondering": 3967,
      "plication": 3968,
      "paying": 3969,
      "satis": 3970,
      "religious": 3971,
      "70s": 3972,
      "passionate": 3973,
      "chicken": 3974,
      "valuable": 3975,
      "mosquito": 3976,
      "cultures": 3977,
      "apo": 3978,
      "dia": 3979,
      "dots": 3980,
      "jam": 3981,
      "nar": 3982,
      "pig": 3983,
      "ub": 3984,
      "thes": 3985,
      "whom": 3986,
      "idents": 3987,
      "roof": 3988,
      "caused": 3989,
      "evil": 3990,
      "organisms": 3991,
      "controlled": 3992,
      "testing": 3993,
      "empty": 3994,
      "molecular": 3995,
      "strateg": 3996,
      "property": 3997,
      "consumption": 3998,
      "details": 3999,
      "distribution": 4000,
      "crowd": 4001,
      "liquid": 4002,
      "gender": 4003,
      "niger": 4004,
      "toi": 4005,
      "stup": 4006,
      "acqu": 4007,
      "soil": 4008,
      "conside": 4009,
      "extract": 4010,
      "pregn": 4011,
      "drag": 4012,
      "court": 4013,
      "solving": 4014,
      "smile": 4015,
      "treated": 4016,
      "engineer": 4017,
      "practical": 4018,
      "forests": 4019,
      "doub": 4020,
      "humor": 4021,
      "clinical": 4022,
      "management": 4023,
      "pleasure": 4024,
      "penguins": 4025,
      "considered": 4026,
      "ko": 4027,
      "ride": 4028,
      "xim": 4029,
      "ret": 4030,
      "itals": 4031,
      "negot": 4032,
      "rian": 4033,
      "ult": 4034,
      "article": 4035,
      "boo": 4036,
      "symp": 4037,
      "awful": 4038,
      "chain": 4039,
      "equival": 4040,
      "productive": 4041,
      "lawy": 4042,
      "circle": 4043,
      "fields": 4044,
      "sentence": 4045,
      "walls": 4046,
      "makers": 4047,
      "graduate": 4048,
      "sharks": 4049,
      "francis": 4050,
      "quiet": 4051,
      "negoti": 4052,
      "fiction": 4053,
      "mac": 4054,
      "vac": 4055,
      "regre": 4056,
      "atures": 4057,
      "hael": 4058,
      "dere": 4059,
      "caught": 4060,
      "exhibit": 4061,
      "grass": 4062,
      "partner": 4063,
      "interface": 4064,
      "plays": 4065,
      "feelings": 4066,
      "producing": 4067,
      "polar": 4068,
      "limit": 4069,
      "driver": 4070,
      "videos": 4071,
      "burn": 4072,
      "occup": 4073,
      "advent": 4074,
      "defined": 4075,
      "definitely": 4076,
      "photographs": 4077,
      "affected": 4078,
      "sweet": 4079,
      "consequences": 4080,
      "stupid": 4081,
      "cers": 4082,
      "gam": 4083,
      "hat": 4084,
      "pure": 4085,
      "scri": 4086,
      "tall": 4087,
      "tap": 4088,
      "isol": 4089,
      "icing": 4090,
      "icts": 4091,
      "mel": 4092,
      "lio": 4093,
      "ids": 4094,
      "neath": 4095,
      "frag": 4096,
      "frustr": 4097,
      "grant": 4098,
      "hadn": 4099,
      "reduc": 4100,
      "ignor": 4101,
      "underneath": 4102,
      "vibr": 4103,
      "writer": 4104,
      "flower": 4105,
      "singing": 4106,
      "ification": 4107,
      "signal": 4108,
      "connections": 4109,
      "fied": 4110,
      "grandmother": 4111,
      "osity": 4112,
      "pollen": 4113,
      "curious": 4114,
      "civilization": 4115,
      "conduct": 4116,
      "99": 4117,
      "bin": 4118,
      "iat": 4119,
      "pages": 4120,
      "via": 4121,
      "ware": 4122,
      "wave": 4123,
      "insur": 4124,
      "anger": 4125,
      "reci": 4126,
      "bee": 4127,
      "lyn": 4128,
      "acting": 4129,
      "myth": 4130,
      "cipl": 4131,
      "phr": 4132,
      "calling": 4133,
      "designers": 4134,
      "northern": 4135,
      "warming": 4136,
      "printing": 4137,
      "institution": 4138,
      "motion": 4139,
      "confidence": 4140,
      "intelligent": 4141,
      "dogs": 4142,
      "infected": 4143,
      "vehicle": 4144,
      "spoke": 4145,
      "pounds": 4146,
      "empathy": 4147,
      "thir": 4148,
      "inced": 4149,
      "anx": 4150,
      "encourage": 4151,
      "beach": 4152,
      "mod": 4153,
      "irt": 4154,
      "del": 4155,
      "deeper": 4156,
      "congress": 4157,
      "shark": 4158,
      "boat": 4159,
      "crete": 4160,
      "michael": 4161,
      "blocks": 4162,
      "electron": 4163,
      "scen": 4164,
      "grandfather": 4165,
      "silence": 4166,
      "convinced": 4167,
      "adult": 4168,
      "desert": 4169,
      "politicians": 4170,
      "etry": 4171,
      "pak": 4172,
      "vot": 4173,
      "wing": 4174,
      "thal": 4175,
      "reaction": 4176,
      "ingred": 4177,
      "stro": 4178,
      "mov": 4179,
      "notes": 4180,
      "prove": 4181,
      "poetry": 4182,
      "achiev": 4183,
      "colon": 4184,
      "stood": 4185,
      "bike": 4186,
      "invention": 4187,
      "german": 4188,
      "parad": 4189,
      "fewer": 4190,
      "portion": 4191,
      "expected": 4192,
      "brief": 4193,
      "released": 4194,
      "psychology": 4195,
      "debate": 4196,
      "narrative": 4197,
      "algorithms": 4198,
      "tumor": 4199,
      "credit": 4200,
      "maintain": 4201,
      "pakistan": 4202,
      "35": 4203,
      "gon": 4204,
      "ib": 4205,
      "phas": 4206,
      "rhy": 4207,
      "som": 4208,
      "winter": 4209,
      "thy": 4210,
      "eral": 4211,
      "staff": 4212,
      "manip": 4213,
      "embar": 4214,
      "ensity": 4215,
      "shake": 4216,
      "personally": 4217,
      "nerv": 4218,
      "typically": 4219,
      "protection": 4220,
      "awareness": 4221,
      "battery": 4222,
      "mirac": 4223,
      "issions": 4224,
      "arrived": 4225,
      "21st": 4226,
      "equivalent": 4227,
      "fis": 4228,
      "gps": 4229,
      "jack": 4230,
      "leng": 4231,
      "pm": 4232,
      "pow": 4233,
      "reti": 4234,
      "ston": 4235,
      "severe": 4236,
      "liver": 4237,
      "prop": 4238,
      "plate": 4239,
      "saved": 4240,
      "powered": 4241,
      "eval": 4242,
      "vessel": 4243,
      "prefer": 4244,
      "observ": 4245,
      "march": 4246,
      "trip": 4247,
      "stock": 4248,
      "engaged": 4249,
      "importance": 4250,
      "players": 4251,
      "thoughts": 4252,
      "regard": 4253,
      "occas": 4254,
      "sources": 4255,
      "picked": 4256,
      "hospitals": 4257,
      "80s": 4258,
      "mountains": 4259,
      "launched": 4260,
      "techniques": 4261,
      "dynamic": 4262,
      "relatively": 4263,
      "gentlemen": 4264,
      "folks": 4265,
      "heavy": 4266,
      "concentr": 4267,
      "hypothe": 4268,
      "ey": 4269,
      "gin": 4270,
      "wars": 4271,
      "ana": 4272,
      "abstr": 4273,
      "union": 4274,
      "ateful": 4275,
      "ideal": 4276,
      "span": 4277,
      "brown": 4278,
      "lifetime": 4279,
      "lessons": 4280,
      "eastern": 4281,
      "scot": 4282,
      "spectrum": 4283,
      "critic": 4284,
      "emerging": 4285,
      "bomb": 4286,
      "budget": 4287,
      "mortality": 4288,
      "false": 4289,
      "circumst": 4290,
      "thomas": 4291,
      "bath": 4292,
      "gul": 4293,
      "jer": 4294,
      "rush": 4295,
      "zone": 4296,
      "toward": 4297,
      "itarian": 4298,
      "edia": 4299,
      "selling": 4300,
      "youtube": 4301,
      "lock": 4302,
      "worried": 4303,
      "cave": 4304,
      "poem": 4305,
      "grap": 4306,
      "emissions": 4307,
      "pray": 4308,
      "izon": 4309,
      "buying": 4310,
      "dish": 4311,
      "2010": 4312,
      "autonom": 4313,
      "breaking": 4314,
      "processes": 4315,
      "risks": 4316,
      "effectively": 4317,
      "director": 4318,
      "stronger": 4319,
      "harvard": 4320,
      "newspaper": 4321,
      "garden": 4322,
      "consist": 4323,
      "technical": 4324,
      "gravity": 4325,
      "nervous": 4326,
      "jaz": 4327,
      "kno": 4328,
      "init": 4329,
      "repair": 4330,
      "dece": 4331,
      "former": 4332,
      "goods": 4333,
      "preser": 4334,
      "flash": 4335,
      "served": 4336,
      "simpl": 4337,
      "bush": 4338,
      "yester": 4339,
      "angers": 4340,
      "tracking": 4341,
      "requires": 4342,
      "birthday": 4343,
      "principle": 4344,
      "victims": 4345,
      "exercise": 4346,
      "marketing": 4347,
      "solid": 4348,
      "pun": 4349,
      "pup": 4350,
      "aris": 4351,
      "seat": 4352,
      "meter": 4353,
      "nets": 4354,
      "comed": 4355,
      "nose": 4356,
      "shell": 4357,
      "talent": 4358,
      "discipl": 4359,
      "ension": 4360,
      "trials": 4361,
      "designing": 4362,
      "topic": 4363,
      "shoot": 4364,
      "memories": 4365,
      "eleph": 4366,
      "status": 4367,
      "ecosystem": 4368,
      "vulnerable": 4369,
      "galaxy": 4370,
      "roughly": 4371,
      "epidemic": 4372,
      "length": 4373,
      "bum": 4374,
      "jac": 4375,
      "jail": 4376,
      "sees": 4377,
      "height": 4378,
      "gos": 4379,
      "goals": 4380,
      "unlike": 4381,
      "maps": 4382,
      "magn": 4383,
      "quit": 4384,
      "reser": 4385,
      "co2": 4386,
      "shel": 4387,
      "string": 4388,
      "minim": 4389,
      "lessly": 4390,
      "germany": 4391,
      "valley": 4392,
      "signals": 4393,
      "amounts": 4394,
      "existing": 4395,
      "release": 4396,
      "institute": 4397,
      "introduced": 4398,
      "mistakes": 4399,
      "dolph": 4400,
      "yesterday": 4401,
      "600": 4402,
      "bare": 4403,
      "bil": 4404,
      "gro": 4405,
      "kore": 4406,
      "lor": 4407,
      "osaur": 4408,
      "pest": 4409,
      "raw": 4410,
      "rates": 4411,
      "sir": 4412,
      "wine": 4413,
      "yo": 4414,
      "rew": 4415,
      "error": 4416,
      "toms": 4417,
      "ories": 4418,
      "exists": 4419,
      "grateful": 4420,
      "aston": 4421,
      "flat": 4422,
      "fund": 4423,
      "bottle": 4424,
      "added": 4425,
      "falling": 4426,
      "combine": 4427,
      "sophistic": 4428,
      "sports": 4429,
      "authority": 4430,
      "introduce": 4431,
      "laboratory": 4432,
      "principles": 4433,
      "candid": 4434,
      "restaurant": 4435,
      "2000": 4436,
      "65": 4437,
      "ffe": 4438,
      "tag": 4439,
      "ali": 4440,
      "ablish": 4441,
      "unit": 4442,
      "establish": 4443,
      "pool": 4444,
      "polio": 4445,
      "bran": 4446,
      "aked": 4447,
      "finance": 4448,
      "possibilities": 4449,
      "waves": 4450,
      "environments": 4451,
      "milk": 4452,
      "axis": 4453,
      "profession": 4454,
      "layer": 4455,
      "90s": 4456,
      "finger": 4457,
      "mathematics": 4458,
      "darwin": 4459,
      "intuitive": 4460,
      "conventional": 4461,
      "doubt": 4462,
      "ec": 4463,
      "gall": 4464,
      "ik": 4465,
      "james": 4466,
      "oly": 4467,
      "pti": 4468,
      "wed": 4469,
      "anony": 4470,
      "reven": 4471,
      "attempt": 4472,
      "enced": 4473,
      "sters": 4474,
      "icon": 4475,
      "haiti": 4476,
      "plans": 4477,
      "tape": 4478,
      "carefully": 4479,
      "bang": 4480,
      "animation": 4481,
      "wake": 4482,
      "explains": 4483,
      "richard": 4484,
      "medium": 4485,
      "cards": 4486,
      "constit": 4487,
      "constant": 4488,
      "proteins": 4489,
      "platform": 4490,
      "dramatic": 4491,
      "entrepreneurs": 4492,
      "agriculture": 4493,
      "alternative": 4494,
      "appropriate": 4495,
      "scared": 4496,
      "kilometers": 4497,
      "migr": 4498,
      "ino": 4499,
      "orbit": 4500,
      "member": 4501,
      "chimp": 4502,
      "robert": 4503,
      "contract": 4504,
      "exchange": 4505,
      "quake": 4506,
      "spok": 4507,
      "logic": 4508,
      "cords": 4509,
      "funding": 4510,
      "economies": 4511,
      "border": 4512,
      "harm": 4513,
      "factor": 4514,
      "steel": 4515,
      "sensitive": 4516,
      "depends": 4517,
      "dealing": 4518,
      "behavioral": 4519,
      "meaningful": 4520,
      "participate": 4521,
      "lifest": 4522,
      "discuss": 4523,
      "heroes": 4524,
      "romantic": 4525,
      "reveal": 4526,
      "accurate": 4527,
      "opinion": 4528,
      "bors": 4529,
      "dict": 4530,
      "item": 4531,
      "stan": 4532,
      "abol": 4533,
      "ctions": 4534,
      "inevit": 4535,
      "worlds": 4536,
      "bold": 4537,
      "desk": 4538,
      "ptions": 4539,
      "tribut": 4540,
      "monitor": 4541,
      "interests": 4542,
      "cyber": 4543,
      "walks": 4544,
      "parent": 4545,
      "employ": 4546,
      "particles": 4547,
      "fundamentally": 4548,
      "subjects": 4549,
      "chemicals": 4550,
      "brothers": 4551,
      "announ": 4552,
      "resistance": 4553,
      "mentioned": 4554,
      "scratch": 4555,
      "components": 4556,
      "sweden": 4557,
      "intellectual": 4558,
      "telescope": 4559,
      "circumstances": 4560,
      "fright": 4561,
      "gab": 4562,
      "wol": 4563,
      "eness": 4564,
      "chose": 4565,
      "keys": 4566,
      "unusual": 4567,
      "fru": 4568,
      "proof": 4569,
      "owners": 4570,
      "boom": 4571,
      "channel": 4572,
      "chocol": 4573,
      "gency": 4574,
      "internal": 4575,
      "privi": 4576,
      "applied": 4577,
      "continent": 4578,
      "protest": 4579,
      "advice": 4580,
      "appears": 4581,
      "innovative": 4582,
      "sequence": 4583,
      "flowers": 4584,
      "carrying": 4585,
      "variety": 4586,
      "instrument": 4587,
      "swimming": 4588,
      "atoms": 4589,
      "harvest": 4590,
      "collapse": 4591,
      "survey": 4592,
      "rapidly": 4593,
      "hydrogen": 4594,
      "temporary": 4595,
      "movies": 4596,
      "gulf": 4597,
      "fying": 4598,
      "gate": 4599,
      "hide": 4600,
      "kitch": 4601,
      "mm": 4602,
      "pian": 4603,
      "tch": 4604,
      "uries": 4605,
      "thus": 4606,
      "eric": 4607,
      "encour": 4608,
      "heim": 4609,
      "abled": 4610,
      "iron": 4611,
      "explan": 4612,
      "illustr": 4613,
      "whel": 4614,
      "redu": 4615,
      "brow": 4616,
      "firm": 4617,
      "disaster": 4618,
      "overwhel": 4619,
      "intense": 4620,
      "serving": 4621,
      "percentage": 4622,
      "navig": 4623,
      "joined": 4624,
      "primary": 4625,
      "computing": 4626,
      "runs": 4627,
      "electro": 4628,
      "dinosaur": 4629,
      "films": 4630,
      "portra": 4631,
      "senses": 4632,
      "oceans": 4633,
      "sample": 4634,
      "mechanical": 4635,
      "britain": 4636,
      "philosophy": 4637,
      "flex": 4638,
      "framework": 4639,
      "prepared": 4640,
      "rhyth": 4641,
      "23": 4642,
      "cue": 4643,
      "fan": 4644,
      "gust": 4645,
      "yard": 4646,
      "reverse": 4647,
      "recycl": 4648,
      "cere": 4649,
      "option": 4650,
      "resili": 4651,
      "icted": 4652,
      "fake": 4653,
      "muslim": 4654,
      "wondered": 4655,
      "generally": 4656,
      "economists": 4657,
      "ternal": 4658,
      "apparent": 4659,
      "operate": 4660,
      "sunlight": 4661,
      "increased": 4662,
      "messages": 4663,
      "boxes": 4664,
      "elev": 4665,
      "satur": 4666,
      "attacks": 4667,
      "judge": 4668,
      "mirror": 4669,
      "defense": 4670,
      "journalist": 4671,
      "contrast": 4672,
      "dense": 4673,
      "tat": 4674,
      "vention": 4675,
      "ante": 4676,
      "leap": 4677,
      "weigh": 4678,
      "accompl": 4679,
      "ays": 4680,
      "loop": 4681,
      "doors": 4682,
      "concrete": 4683,
      "comment": 4684,
      "iled": 4685,
      "centers": 4686,
      "intim": 4687,
      "destru": 4688,
      "smith": 4689,
      "paris": 4690,
      "relations": 4691,
      "movements": 4692,
      "processing": 4693,
      "passwords": 4694,
      "airport": 4695,
      "regul": 4696,
      "regions": 4697,
      "soul": 4698,
      "barri": 4699,
      "magnet": 4700,
      "teams": 4701,
      "roads": 4702,
      "sustainability": 4703,
      "consumer": 4704,
      "hunger": 4705,
      "vaccines": 4706,
      "collaboration": 4707,
      "latin": 4708,
      "cooking": 4709,
      "hoping": 4710,
      "embrace": 4711,
      "transportation": 4712,
      "manufacturing": 4713,
      "astronom": 4714,
      "destruction": 4715,
      "hen": 4716,
      "mile": 4717,
      "sar": 4718,
      "zy": 4719,
      "infin": 4720,
      "reject": 4721,
      "tories": 4722,
      "alex": 4723,
      "cher": 4724,
      "chip": 4725,
      "ams": 4726,
      "tea": 4727,
      "teeth": 4728,
      "poo": 4729,
      "agre": 4730,
      "centuries": 4731,
      "assign": 4732,
      "authen": 4733,
      "borders": 4734,
      "allowing": 4735,
      "2007": 4736,
      "factors": 4737,
      "holds": 4738,
      "operation": 4739,
      "southern": 4740,
      "advanced": 4741,
      "literature": 4742,
      "traveling": 4743,
      "combination": 4744,
      "antibi": 4745,
      "scope": 4746,
      "ropy": 4747,
      "discussion": 4748,
      "library": 4749,
      "phase": 4750,
      "dut": 4751,
      "gates": 4752,
      "kick": 4753,
      "ouds": 4754,
      "ale": 4755,
      "consu": 4756,
      "constrain": 4757,
      "cock": 4758,
      "applications": 4759,
      "guard": 4760,
      "mune": 4761,
      "clouds": 4762,
      "obama": 4763,
      "interpret": 4764,
      "stands": 4765,
      "facial": 4766,
      "windows": 4767,
      "convince": 4768,
      "conversations": 4769,
      "islamic": 4770,
      "breathe": 4771,
      "sacri": 4772,
      "circuit": 4773,
      "previous": 4774,
      "radiation": 4775,
      "22": 4776,
      "ai": 4777,
      "iphone": 4778,
      "ibility": 4779,
      "loud": 4780,
      "twe": 4781,
      "arrest": 4782,
      "stable": 4783,
      "stair": 4784,
      "icated": 4785,
      "chart": 4786,
      "amy": 4787,
      "sahar": 4788,
      "upper": 4789,
      "gray": 4790,
      "guide": 4791,
      "crash": 4792,
      "poses": 4793,
      "offers": 4794,
      "flag": 4795,
      "shaped": 4796,
      "instinct": 4797,
      "transplant": 4798,
      "busy": 4799,
      "prime": 4800,
      "clever": 4801,
      "equally": 4802,
      "behaviors": 4803,
      "iency": 4804,
      "stayed": 4805,
      "include": 4806,
      "footprint": 4807,
      "juli": 4808,
      "cameras": 4809,
      "rupt": 4810,
      "challenging": 4811,
      "russia": 4812,
      "eggs": 4813,
      "nasa": 4814,
      "grapher": 4815,
      "sophisticated": 4816,
      "chocolate": 4817,
      "kitchen": 4818,
      "bay": 4819,
      "ckets": 4820,
      "gut": 4821,
      "mim": 4822,
      "rass": 4823,
      "rition": 4824,
      "ume": 4825,
      "thick": 4826,
      "inations": 4827,
      "represents": 4828,
      "esthe": 4829,
      "style": 4830,
      "icide": 4831,
      "unknown": 4832,
      "imple": 4833,
      "proced": 4834,
      "ula": 4835,
      "illegal": 4836,
      "illusion": 4837,
      "iving": 4838,
      "prepar": 4839,
      "trill": 4840,
      "colum": 4841,
      "parking": 4842,
      "19th": 4843,
      "identical": 4844,
      "earthquake": 4845,
      "dancing": 4846,
      "stere": 4847,
      "burning": 4848,
      "tonight": 4849,
      "dependence": 4850,
      "samples": 4851,
      "mechanism": 4852,
      "bombs": 4853,
      "nutrition": 4854,
      "laptop": 4855,
      "inspiration": 4856,
      "fabric": 4857,
      "therapy": 4858,
      "martin": 4859,
      "knee": 4860,
      "embarrass": 4861,
      "lifestyle": 4862,
      "cats": 4863,
      "hits": 4864,
      "kn": 4865,
      "mri": 4866,
      "pting": 4867,
      "infl": 4868,
      "islands": 4869,
      "ald": 4870,
      "steve": 4871,
      "whist": 4872,
      "otics": 4873,
      "wired": 4874,
      "immune": 4875,
      "femin": 4876,
      "conver": 4877,
      "urally": 4878,
      "resto": 4879,
      "poet": 4880,
      "pocket": 4881,
      "embed": 4882,
      "phy": 4883,
      "sheep": 4884,
      "logically": 4885,
      "desper": 4886,
      "viruses": 4887,
      "globe": 4888,
      "physically": 4889,
      "certainty": 4890,
      "tests": 4891,
      "collecting": 4892,
      "mainly": 4893,
      "reaching": 4894,
      "pollution": 4895,
      "situations": 4896,
      "hotel": 4897,
      "interactive": 4898,
      "suppose": 4899,
      "transformed": 4900,
      "mistake": 4901,
      "spiritual": 4902,
      "criminal": 4903,
      "diagnosed": 4904,
      "corporate": 4905,
      "satellite": 4906,
      "horrible": 4907,
      "wikip": 4908,
      "francisco": 4909,
      "authentic": 4910,
      "bicy": 4911,
      "hut": 4912,
      "ji": 4913,
      "nes": 4914,
      "pace": 4915,
      "pitch": 4916,
      "stal": 4917,
      "secure": 4918,
      "aret": 4919,
      "ria": 4920,
      "fears": 4921,
      "perman": 4922,
      "somewhat": 4923,
      "plain": 4924,
      "kingdom": 4925,
      "display": 4926,
      "overall": 4927,
      "obes": 4928,
      "presence": 4929,
      "mony": 4930,
      "pulled": 4931,
      "197": 4932,
      "bott": 4933,
      "healthcare": 4934,
      "surely": 4935,
      "broke": 4936,
      "signs": 4937,
      "apping": 4938,
      "devast": 4939,
      "largely": 4940,
      "potentially": 4941,
      "protected": 4942,
      "existence": 4943,
      "oxide": 4944,
      "chrom": 4945,
      "divide": 4946,
      "palest": 4947,
      "neighbors": 4948,
      "properties": 4949,
      "determine": 4950,
      "ultimate": 4951,
      "christmas": 4952,
      "vehicles": 4953,
      "technique": 4954,
      "prosper": 4955,
      "puzzle": 4956,
      "options": 4957,
      "mystery": 4958,
      "fifth": 4959,
      "evalu": 4960,
      "wikipedia": 4961,
      "cart": 4962,
      "cous": 4963,
      "mt": 4964,
      "pha": 4965,
      "pour": 4966,
      "vin": 4967,
      "records": 4968,
      "asy": 4969,
      "chi": 4970,
      "tie": 4971,
      "empower": 4972,
      "ums": 4973,
      "clust": 4974,
      "underwater": 4975,
      "compar": 4976,
      "condom": 4977,
      "joke": 4978,
      "2009": 4979,
      "faced": 4980,
      "volume": 4981,
      "treating": 4982,
      "collected": 4983,
      "greenhouse": 4984,
      "advance": 4985,
      "closely": 4986,
      "ridicul": 4987,
      "functional": 4988,
      "housing": 4989,
      "wheelchair": 4990,
      "welcome": 4991,
      "mathematical": 4992,
      "vulnerability": 4993,
      "whales": 4994,
      "january": 4995,
      "dictionary": 4996,
      "shadow": 4997,
      "entertainment": 4998,
      "derek": 4999,
      "spoken": 5000,
      "obesity": 5001,
      "cil": 5002,
      "ee": 5003,
      "honey": 5004,
      "jon": 5005,
      "ker": 5006,
      "len": 5007,
      "mall": 5008,
      "theme": 5009,
      "angry": 5010,
      "react": 5011,
      "atl": 5012,
      "lete": 5013,
      "sep": 5014,
      "omes": 5015,
      "beet": 5016,
      "utter": 5017,
      "chie": 5018,
      "neither": 5019,
      "implications": 5020,
      "ament": 5021,
      "admit": 5022,
      "noon": 5023,
      "disappear": 5024,
      "intention": 5025,
      "handle": 5026,
      "naturally": 5027,
      "ballo": 5028,
      "generated": 5029,
      "athlet": 5030,
      "boring": 5031,
      "keeps": 5032,
      "educational": 5033,
      "painful": 5034,
      "distinct": 5035,
      "hyper": 5036,
      "explained": 5037,
      "measuring": 5038,
      "arguments": 5039,
      "promis": 5040,
      "spreading": 5041,
      "conflicts": 5042,
      "pushing": 5043,
      "activities": 5044,
      "continued": 5045,
      "frankly": 5046,
      "season": 5047,
      "arctic": 5048,
      "advertising": 5049,
      "nigeria": 5050,
      "symptoms": 5051,
      "regret": 5052,
      "insurance": 5053,
      "phrase": 5054,
      "abstract": 5055,
      "astonishing": 5056,
      "implement": 5057,
      "bia": 5058,
      "initi": 5059,
      "remove": 5060,
      "refer": 5061,
      "ato": 5062,
      "tocin": 5063,
      "orient": 5064,
      "likes": 5065,
      "roots": 5066,
      "implant": 5067,
      "tember": 5068,
      "anta": 5069,
      "odd": 5070,
      "odes": 5071,
      "nobel": 5072,
      "cra": 5073,
      "posing": 5074,
      "careful": 5075,
      "transfer": 5076,
      "remem": 5077,
      "signed": 5078,
      "statement": 5079,
      "dropped": 5080,
      "feeding": 5081,
      "recorded": 5082,
      "religions": 5083,
      "adoles": 5084,
      "providing": 5085,
      "suffer": 5086,
      "oxytocin": 5087,
      "galaxies": 5088,
      "conclusion": 5089,
      "elimin": 5090,
      "taste": 5091,
      "incentives": 5092,
      "toilet": 5093,
      "pregnant": 5094,
      "occasion": 5095,
      "september": 5096,
      "cence": 5097,
      "ears": 5098,
      "hatt": 5099,
      "itors": 5100,
      "tack": 5101,
      "wound": 5102,
      "andon": 5103,
      "ita": 5104,
      "orches": 5105,
      "usive": 5106,
      "feature": 5107,
      "opath": 5108,
      "aming": 5109,
      "frid": 5110,
      "pled": 5111,
      "plom": 5112,
      "manhatt": 5113,
      "agency": 5114,
      "gra": 5115,
      "grat": 5116,
      "ured": 5117,
      "brush": 5118,
      "wherever": 5119,
      "disorder": 5120,
      "carol": 5121,
      "corn": 5122,
      "coral": 5123,
      "funded": 5124,
      "designs": 5125,
      "struck": 5126,
      "diplom": 5127,
      "relate": 5128,
      "missed": 5129,
      "controver": 5130,
      "rising": 5131,
      "younger": 5132,
      "stretch": 5133,
      "classes": 5134,
      "classic": 5135,
      "horizon": 5136,
      "photography": 5137,
      "reached": 5138,
      "rub": 5139,
      "furnit": 5140,
      "songs": 5141,
      "required": 5142,
      "performing": 5143,
      "prototype": 5144,
      "official": 5145,
      "surrounded": 5146,
      "whale": 5147,
      "zoom": 5148,
      "egypt": 5149,
      "obsessed": 5150,
      "ignorance": 5151,
      "retire": 5152,
      "heimer": 5153,
      "manhattan": 5154,
      "dent": 5155,
      "gence": 5156,
      "iel": 5157,
      "nest": 5158,
      "pion": 5159,
      "rating": 5160,
      "rors": 5161,
      "ining": 5162,
      "input": 5163,
      "request": 5164,
      "toy": 5165,
      "alpha": 5166,
      "assume": 5167,
      "het": 5168,
      "rocket": 5169,
      "outcome": 5170,
      "rig": 5171,
      "button": 5172,
      "adm": 5173,
      "causing": 5174,
      "plot": 5175,
      "appoint": 5176,
      "rence": 5177,
      "spon": 5178,
      "spill": 5179,
      "guar": 5180,
      "tribe": 5181,
      "bias": 5182,
      "olds": 5183,
      "breed": 5184,
      "limits": 5185,
      "ctors": 5186,
      "tested": 5187,
      "shock": 5188,
      "speaker": 5189,
      "deaths": 5190,
      "adopt": 5191,
      "citizen": 5192,
      "latest": 5193,
      "efficiency": 5194,
      "engagement": 5195,
      "pipe": 5196,
      "methods": 5197,
      "nurses": 5198,
      "fingers": 5199,
      "customers": 5200,
      "categor": 5201,
      "academic": 5202,
      "conservation": 5203,
      "surgeon": 5204,
      "elder": 5205,
      "furniture": 5206,
      "27": 5207,
      "bby": 5208,
      "ix": 5209,
      "kilo": 5210,
      "rome": 5211,
      "zheimer": 5212,
      "alzheimer": 5213,
      "iters": 5214,
      "stack": 5215,
      "conven": 5216,
      "agencies": 5217,
      "shall": 5218,
      "distr": 5219,
      "strangers": 5220,
      "assist": 5221,
      "download": 5222,
      "polic": 5223,
      "paras": 5224,
      "visible": 5225,
      "translate": 5226,
      "banks": 5227,
      "labe": 5228,
      "populations": 5229,
      "depth": 5230,
      "papers": 5231,
      "sensors": 5232,
      "touched": 5233,
      "smoke": 5234,
      "apartment": 5235,
      "fascinated": 5236,
      "teenagers": 5237,
      "historical": 5238,
      "antibiotics": 5239,
      "26": 5240,
      "bage": 5241,
      "ius": 5242,
      "pons": 5243,
      "rw": 5244,
      "wid": 5245,
      "yield": 5246,
      "reform": 5247,
      "refri": 5248,
      "lee": 5249,
      "ota": 5250,
      "oty": 5251,
      "absor": 5252,
      "ros": 5253,
      "outcomes": 5254,
      "locked": 5255,
      "peter": 5256,
      "thered": 5257,
      "agend": 5258,
      "worker": 5259,
      "pharm": 5260,
      "sheet": 5261,
      "clay": 5262,
      "club": 5263,
      "herit": 5264,
      "preced": 5265,
      "tribes": 5266,
      "functions": 5267,
      "graphics": 5268,
      "truck": 5269,
      "passeng": 5270,
      "champ": 5271,
      "connecting": 5272,
      "figures": 5273,
      "hearts": 5274,
      "robotic": 5275,
      "accessible": 5276,
      "60s": 5277,
      "interactions": 5278,
      "evolutionary": 5279,
      "offered": 5280,
      "fixed": 5281,
      "license": 5282,
      "pilot": 5283,
      "flip": 5284,
      "concepts": 5285,
      "paradig": 5286,
      "chief": 5287,
      "refriger": 5288,
      "95": 5289,
      "bid": 5290,
      "dies": 5291,
      "hig": 5292,
      "hans": 5293,
      "kar": 5294,
      "ooh": 5295,
      "pse": 5296,
      "till": 5297,
      "ua": 5298,
      "inform": 5299,
      "ision": 5300,
      "orders": 5301,
      "stic": 5302,
      "ache": 5303,
      "neut": 5304,
      "dozen": 5305,
      "golf": 5306,
      "rill": 5307,
      "congo": 5308,
      "nowhere": 5309,
      "tied": 5310,
      "application": 5311,
      "ela": 5312,
      "engaging": 5313,
      "invite": 5314,
      "imaging": 5315,
      "technological": 5316,
      "planes": 5317,
      "datab": 5318,
      "cheaper": 5319,
      "curve": 5320,
      "joe": 5321,
      "gged": 5322,
      "drives": 5323,
      "2005": 5324,
      "amazon": 5325,
      "deploy": 5326,
      "meetings": 5327,
      "falls": 5328,
      "lux": 5329,
      "pursu": 5330,
      "practices": 5331,
      "traveled": 5332,
      "sticks": 5333,
      "schol": 5334,
      "raising": 5335,
      "linked": 5336,
      "frozen": 5337,
      "celebrate": 5338,
      "contribute": 5339,
      "curiosity": 5340,
      "selection": 5341,
      "component": 5342,
      "volunteers": 5343,
      "appreciate": 5344,
      "precisely": 5345,
      "narrow": 5346,
      "rhythm": 5347,
      "embedded": 5348,
      "pione": 5349,
      "cend": 5350,
      "dust": 5351,
      "jim": 5352,
      "lind": 5353,
      "mone": 5354,
      "pink": 5355,
      "recon": 5356,
      "rema": 5357,
      "reference": 5358,
      "toler": 5359,
      "ister": 5360,
      "behave": 5361,
      "lium": 5362,
      "usions": 5363,
      "oph": 5364,
      "ambit": 5365,
      "ulous": 5366,
      "ulated": 5367,
      "plenty": 5368,
      "tight": 5369,
      "foss": 5370,
      "wanting": 5371,
      "boston": 5372,
      "happier": 5373,
      "clar": 5374,
      "evening": 5375,
      "sian": 5376,
      "mining": 5377,
      "afternoon": 5378,
      "imagined": 5379,
      "rail": 5380,
      "morality": 5381,
      "clothes": 5382,
      "arency": 5383,
      "drill": 5384,
      "charity": 5385,
      "phosp": 5386,
      "elections": 5387,
      "equation": 5388,
      "angeles": 5389,
      "climb": 5390,
      "winning": 5391,
      "existed": 5392,
      "flood": 5393,
      "fishing": 5394,
      "receive": 5395,
      "fortunate": 5396,
      "score": 5397,
      "standards": 5398,
      "surprisingly": 5399,
      "distributed": 5400,
      "occurred": 5401,
      "quarter": 5402,
      "seeds": 5403,
      "commitment": 5404,
      "trend": 5405,
      "transparency": 5406,
      "ingredients": 5407,
      "powers": 5408,
      "poorest": 5409,
      "higgs": 5410,
      "250": 5411,
      "dur": 5412,
      "pump": 5413,
      "tical": 5414,
      "va": 5415,
      "vation": 5416,
      "thin": 5417,
      "attribut": 5418,
      "toxic": 5419,
      "icago": 5420,
      "hemis": 5421,
      "chicago": 5422,
      "abandon": 5423,
      "adminis": 5424,
      "france": 5425,
      "coach": 5426,
      "inequality": 5427,
      "willi": 5428,
      "bug": 5429,
      "bucks": 5430,
      "needle": 5431,
      "minor": 5432,
      "compound": 5433,
      "organize": 5434,
      "50s": 5435,
      "chap": 5436,
      "chaos": 5437,
      "fortune": 5438,
      "extinct": 5439,
      "glac": 5440,
      "expectations": 5441,
      "aneously": 5442,
      "combined": 5443,
      "hungry": 5444,
      "arabic": 5445,
      "anticip": 5446,
      "frog": 5447,
      "inspiring": 5448,
      "dramatically": 5449,
      "captured": 5450,
      "exploration": 5451,
      "split": 5452,
      "granted": 5453,
      "achieved": 5454,
      "piano": 5455,
      "trillion": 5456,
      "guarante": 5457,
      "ki": 5458,
      "nick": 5459,
      "ply": 5460,
      "wich": 5461,
      "inject": 5462,
      "inction": 5463,
      "reco": 5464,
      "ario": 5465,
      "stations": 5466,
      "beer": 5467,
      "chest": 5468,
      "ida": 5469,
      "rose": 5470,
      "unclear": 5471,
      "quot": 5472,
      "grace": 5473,
      "owned": 5474,
      "umin": 5475,
      "crying": 5476,
      "herself": 5477,
      "obst": 5478,
      "lighting": 5479,
      "curren": 5480,
      "economist": 5481,
      "foods": 5482,
      "lake": 5483,
      "extent": 5484,
      "classical": 5485,
      "successfully": 5486,
      "increases": 5487,
      "silent": 5488,
      "divided": 5489,
      "privacy": 5490,
      "reported": 5491,
      "enemy": 5492,
      "neuroscience": 5493,
      "optimistic": 5494,
      "copyright": 5495,
      "imeter": 5496,
      "mammo": 5497,
      "destroyed": 5498,
      "ignore": 5499,
      "diabet": 5500,
      "apparently": 5501,
      "agreed": 5502,
      "sacrif": 5503,
      "bicycle": 5504,
      "remains": 5505,
      "29": 5506,
      "eu": 5507,
      "fare": 5508,
      "iro": 5509,
      "rice": 5510,
      "thur": 5511,
      "inf": 5512,
      "removed": 5513,
      "erad": 5514,
      "orange": 5515,
      "youth": 5516,
      "herent": 5517,
      "forts": 5518,
      "abund": 5519,
      "modif": 5520,
      "decre": 5521,
      "opard": 5522,
      "respons": 5523,
      "poly": 5524,
      "shine": 5525,
      "fool": 5526,
      "ferences": 5527,
      "intent": 5528,
      "monkey": 5529,
      "oldest": 5530,
      "instant": 5531,
      "cheese": 5532,
      "farmer": 5533,
      "otech": 5534,
      "musicians": 5535,
      "metabol": 5536,
      "burg": 5537,
      "speakers": 5538,
      "scop": 5539,
      "improvis": 5540,
      "communications": 5541,
      "printed": 5542,
      "tower": 5543,
      "villages": 5544,
      "amongst": 5545,
      "provided": 5546,
      "clip": 5547,
      "clinic": 5548,
      "session": 5549,
      "instruments": 5550,
      "robust": 5551,
      "spinal": 5552,
      "aspects": 5553,
      "decline": 5554,
      "injury": 5555,
      "vietnam": 5556,
      "anxi": 5557,
      "jazz": 5558,
      "olymp": 5559,
      "anonymous": 5560,
      "obstac": 5561,
      "bones": 5562,
      "gand": 5563,
      "gory": 5564,
      "lly": 5565,
      "tent": 5566,
      "vital": 5567,
      "wet": 5568,
      "veter": 5569,
      "bered": 5570,
      "actors": 5571,
      "gee": 5572,
      "peer": 5573,
      "delive": 5574,
      "unlikely": 5575,
      "teries": 5576,
      "consume": 5577,
      "cake": 5578,
      "excell": 5579,
      "award": 5580,
      "biom": 5581,
      "bible": 5582,
      "matically": 5583,
      "lovely": 5584,
      "196": 5585,
      "avor": 5586,
      "secondly": 5587,
      "limb": 5588,
      "distur": 5589,
      "glad": 5590,
      "fathers": 5591,
      "evolve": 5592,
      "fluid": 5593,
      "depending": 5594,
      "recording": 5595,
      "sandwich": 5596,
      "represented": 5597,
      "title": 5598,
      "savings": 5599,
      "hackers": 5600,
      "exploring": 5601,
      "laser": 5602,
      "scenario": 5603,
      "elephant": 5604,
      "agenda": 5605,
      "delivered": 5606,
      "cab": 5607,
      "dir": 5608,
      "dough": 5609,
      "jes": 5610,
      "pit": 5611,
      "uck": 5612,
      "iny": 5613,
      "republic": 5614,
      "lims": 5615,
      "rio": 5616,
      "ifying": 5617,
      "females": 5618,
      "adjust": 5619,
      "suicide": 5620,
      "proportion": 5621,
      "external": 5622,
      "sage": 5623,
      "rescue": 5624,
      "gras": 5625,
      "erson": 5626,
      "seek": 5627,
      "coordin": 5628,
      "cosmo": 5629,
      "bron": 5630,
      "phili": 5631,
      "bull": 5632,
      "strict": 5633,
      "intri": 5634,
      "hook": 5635,
      "letting": 5636,
      "chosen": 5637,
      "underground": 5638,
      "colony": 5639,
      "efforts": 5640,
      "instantly": 5641,
      "muslims": 5642,
      "views": 5643,
      "researcher": 5644,
      "presented": 5645,
      "ferti": 5646,
      "accum": 5647,
      "sensory": 5648,
      "floating": 5649,
      "describes": 5650,
      "origami": 5651,
      "folding": 5652,
      "properly": 5653,
      "consumers": 5654,
      "participants": 5655,
      "debt": 5656,
      "demonstrate": 5657,
      "beliefs": 5658,
      "paintings": 5659,
      "cros": 5660,
      "cartoons": 5661,
      "scary": 5662,
      "breathing": 5663,
      "complain": 5664,
      "paraly": 5665,
      "stroke": 5666,
      "gabby": 5667,
      "recovery": 5668,
      "anxiety": 5669,
      "33": 5670,
      "bust": 5671,
      "bye": 5672,
      "ij": 5673,
      "lens": 5674,
      "ological": 5675,
      "wart": 5676,
      "instruct": 5677,
      "tops": 5678,
      "delic": 5679,
      "extr": 5680,
      "excl": 5681,
      "essence": 5682,
      "quad": 5683,
      "yours": 5684,
      "torture": 5685,
      "prince": 5686,
      "bless": 5687,
      "thrown": 5688,
      "flour": 5689,
      "finds": 5690,
      "grows": 5691,
      "searching": 5692,
      "friendly": 5693,
      "password": 5694,
      "2006": 5695,
      "burst": 5696,
      "failing": 5697,
      "drawn": 5698,
      "silicon": 5699,
      "football": 5700,
      "microscope": 5701,
      "combat": 5702,
      "measured": 5703,
      "synthetic": 5704,
      "calculate": 5705,
      "affordable": 5706,
      "senior": 5707,
      "contains": 5708,
      "cooperation": 5709,
      "prepare": 5710,
      "shifting": 5711,
      "sculpture": 5712,
      "attached": 5713,
      "dinosaurs": 5714,
      "permanent": 5715,
      "rwanda": 5716,
      "phosphor": 5717,
      "administr": 5718,
      "28": 5719,
      "800": 5720,
      "dung": 5721,
      "density": 5722,
      "fusion": 5723,
      "lou": 5724,
      "tank": 5725,
      "uk": 5726,
      "ull": 5727,
      "vy": 5728,
      "inch": 5729,
      "returned": 5730,
      "enable": 5731,
      "alco": 5732,
      "aside": 5733,
      "sty": 5734,
      "stun": 5735,
      "bears": 5736,
      "meal": 5737,
      "chat": 5738,
      "loves": 5739,
      "nels": 5740,
      "degrad": 5741,
      "units": 5742,
      "ulating": 5743,
      "reson": 5744,
      "agon": 5745,
      "tali": 5746,
      "county": 5747,
      "committed": 5748,
      "drone": 5749,
      "drones": 5750,
      "carried": 5751,
      "flor": 5752,
      "inven": 5753,
      "imagery": 5754,
      "miser": 5755,
      "identified": 5756,
      "musician": 5757,
      "ugly": 5758,
      "presentation": 5759,
      "fires": 5760,
      "distant": 5761,
      "protecting": 5762,
      "silver": 5763,
      "architects": 5764,
      "worthy": 5765,
      "slides": 5766,
      "improvement": 5767,
      "budd": 5768,
      "halluc": 5769,
      "struggling": 5770,
      "baseball": 5771,
      "criminals": 5772,
      "hello": 5773,
      "boundaries": 5774,
      "anthro": 5775,
      "federal": 5776,
      "paralle": 5777,
      "electronics": 5778,
      "comedy": 5779,
      "explanation": 5780,
      "restore": 5781,
      "balloon": 5782,
      "paradigm": 5783,
      "intrigu": 5784,
      "alcohol": 5785,
      "dign": 5786,
      "glow": 5787,
      "ias": 5788,
      "jaw": 5789,
      "lone": 5790,
      "nom": 5791,
      "oven": 5792,
      "isa": 5793,
      "ission": 5794,
      "armed": 5795,
      "seal": 5796,
      "abs": 5797,
      "abuse": 5798,
      "features": 5799,
      "tears": 5800,
      "trash": 5801,
      "aggress": 5802,
      "marine": 5803,
      "afterwards": 5804,
      "personality": 5805,
      "virgin": 5806,
      "2011": 5807,
      "educated": 5808,
      "capita": 5809,
      "incident": 5810,
      "angible": 5811,
      "labs": 5812,
      "electronic": 5813,
      "shocking": 5814,
      "expectancy": 5815,
      "queen": 5816,
      "richer": 5817,
      "involves": 5818,
      "recognition": 5819,
      "interacting": 5820,
      "sales": 5821,
      "confident": 5822,
      "schiz": 5823,
      "tasks": 5824,
      "separated": 5825,
      "flew": 5826,
      "resistant": 5827,
      "physicist": 5828,
      "crops": 5829,
      "psychiat": 5830,
      "neighborhoods": 5831,
      "motivation": 5832,
      "trends": 5833,
      "mushroom": 5834,
      "vessels": 5835,
      "tattoo": 5836,
      "ridiculous": 5837,
      "policies": 5838,
      "fossil": 5839,
      "bally": 5840,
      "lit": 5841,
      "mice": 5842,
      "oy": 5843,
      "ogue": 5844,
      "piz": 5845,
      "ricul": 5846,
      "tong": 5847,
      "inves": 5848,
      "theless": 5849,
      "replic": 5850,
      "atar": 5851,
      "escape": 5852,
      "lean": 5853,
      "stages": 5854,
      "sey": 5855,
      "amin": 5856,
      "exe": 5857,
      "grave": 5858,
      "spider": 5859,
      "fox": 5860,
      "bra": 5861,
      "overcome": 5862,
      "marily": 5863,
      "lecture": 5864,
      "creature": 5865,
      "produces": 5866,
      "matri": 5867,
      "autom": 5868,
      "organism": 5869,
      "controlling": 5870,
      "adding": 5871,
      "laid": 5872,
      "2003": 5873,
      "2004": 5874,
      "interestingly": 5875,
      "30s": 5876,
      "tony": 5877,
      "sleeping": 5878,
      "recognized": 5879,
      "emergency": 5880,
      "predictable": 5881,
      "activist": 5882,
      "covering": 5883,
      "crucial": 5884,
      "characteristics": 5885,
      "nutri": 5886,
      "depressed": 5887,
      "automatically": 5888,
      "psychopath": 5889,
      "agricultural": 5890,
      "pacific": 5891,
      "resilience": 5892,
      "saharan": 5893,
      "stereoty": 5894,
      "cig": 5895,
      "cute": 5896,
      "dive": 5897,
      "kin": 5898,
      "oth": 5899,
      "picking": 5900,
      "sin": 5901,
      "tast": 5902,
      "reha": 5903,
      "recomm": 5904,
      "ensure": 5905,
      "acies": 5906,
      "entered": 5907,
      "lift": 5908,
      "delight": 5909,
      "uncomfortable": 5910,
      "uncertainty": 5911,
      "nowad": 5912,
      "opens": 5913,
      "ours": 5914,
      "tras": 5915,
      "pla": 5916,
      "plu": 5917,
      "agger": 5918,
      "tip": 5919,
      "tired": 5920,
      "answered": 5921,
      "printer": 5922,
      "genius": 5923,
      "hier": 5924,
      "trig": 5925,
      "invas": 5926,
      "tedx": 5927,
      "founded": 5928,
      "vene": 5929,
      "parli": 5930,
      "visited": 5931,
      "muscles": 5932,
      "diver": 5933,
      "diverse": 5934,
      "dioxide": 5935,
      "capes": 5936,
      "photographer": 5937,
      "productivity": 5938,
      "soup": 5939,
      "plicity": 5940,
      "continues": 5941,
      "explaining": 5942,
      "improved": 5943,
      "june": 5944,
      "impacts": 5945,
      "directions": 5946,
      "palm": 5947,
      "psychological": 5948,
      "chairs": 5949,
      "shopping": 5950,
      "glasses": 5951,
      "lifes": 5952,
      "philosopher": 5953,
      "liberal": 5954,
      "wireless": 5955,
      "ratio": 5956,
      "dominant": 5957,
      "pyram": 5958,
      "waters": 5959,
      "strategies": 5960,
      "lawyers": 5961,
      "scott": 5962,
      "dolphins": 5963,
      "barely": 5964,
      "district": 5965,
      "hemisp": 5966,
      "diabetes": 5967,
      "phosphorus": 5968,
      "nowadays": 5969,
      "rage": 5970,
      "wand": 5971,
      "renew": 5972,
      "enn": 5973,
      "ende": 5974,
      "itim": 5975,
      "oran": 5976,
      "acing": 5977,
      "chor": 5978,
      "kee": 5979,
      "neural": 5980,
      "defe": 5981,
      "unbeliev": 5982,
      "trag": 5983,
      "commod": 5984,
      "howard": 5985,
      "ressing": 5986,
      "ague": 5987,
      "wheat": 5988,
      "astics": 5989,
      "prices": 5990,
      "disappoint": 5991,
      "marath": 5992,
      "awk": 5993,
      "pressing": 5994,
      "stops": 5995,
      "shoulder": 5996,
      "archy": 5997,
      "curricul": 5998,
      "195": 5999,
      "closing": 6000,
      "homeless": 6001,
      "publish": 6002,
      "openness": 6003,
      "cub": 6004,
      "passing": 6005,
      "controls": 6006,
      "hardly": 6007,
      "gging": 6008,
      "drivers": 6009,
      "legis": 6010,
      "legitim": 6011,
      "painted": 6012,
      "equality": 6013,
      "filter": 6014,
      "operations": 6015,
      "keyboard": 6016,
      "accidents": 6017,
      "sensor": 6018,
      "purch": 6019,
      "yorker": 6020,
      "staying": 6021,
      "filling": 6022,
      "predictions": 6023,
      "located": 6024,
      "provides": 6025,
      "texting": 6026,
      "rays": 6027,
      "sweat": 6028,
      "agreement": 6029,
      "virtually": 6030,
      "links": 6031,
      "geographic": 6032,
      "nano": 6033,
      "mixed": 6034,
      "drinking": 6035,
      "rarely": 6036,
      "repeat": 6037,
      "repeated": 6038,
      "determined": 6039,
      "estimate": 6040,
      "assembly": 6041,
      "quantum": 6042,
      "gonna": 6043,
      "stanford": 6044,
      "henry": 6045,
      "jihad": 6046,
      "crossing": 6047,
      "anthropo": 6048,
      "bars": 6049,
      "cot": 6050,
      "cash": 6051,
      "ell": 6052,
      "gif": 6053,
      "jar": 6054,
      "jet": 6055,
      "oo": 6056,
      "tick": 6057,
      "tics": 6058,
      "trop": 6059,
      "zan": 6060,
      "andem": 6061,
      "encounter": 6062,
      "icel": 6063,
      "heal": 6064,
      "ceiling": 6065,
      "amed": 6066,
      "traged": 6067,
      "persu": 6068,
      "ultra": 6069,
      "estic": 6070,
      "ups": 6071,
      "astro": 6072,
      "reef": 6073,
      "udes": 6074,
      "blank": 6075,
      "positions": 6076,
      "mayor": 6077,
      "awn": 6078,
      "stores": 6079,
      "helic": 6080,
      "mato": 6081,
      "parado": 6082,
      "sett": 6083,
      "subtle": 6084,
      "globally": 6085,
      "governance": 6086,
      "figuring": 6087,
      "killer": 6088,
      "cambridge": 6089,
      "brian": 6090,
      "statist": 6091,
      "ethnic": 6092,
      "bai": 6093,
      "agram": 6094,
      "nucle": 6095,
      "colleague": 6096,
      "tricks": 6097,
      "translation": 6098,
      "manufacture": 6099,
      "assumptions": 6100,
      "demonstration": 6101,
      "vegetables": 6102,
      "adventure": 6103,
      "korea": 6104,
      "elderly": 6105,
      "ophren": 6106,
      "schizophren": 6107,
      "execut": 6108,
      "parliament": 6109,
      "paradox": 6110,
      "48": 6111,
      "cens": 6112,
      "glim": 6113,
      "hitting": 6114,
      "jose": 6115,
      "lation": 6116,
      "rats": 6117,
      "sket": 6118,
      "uity": 6119,
      "zens": 6120,
      "thumb": 6121,
      "inson": 6122,
      "inhabit": 6123,
      "ert": 6124,
      "assets": 6125,
      "ara": 6126,
      "vey": 6127,
      "rolling": 6128,
      "outer": 6129,
      "pets": 6130,
      "dear": 6131,
      "antarct": 6132,
      "exposed": 6133,
      "plastics": 6134,
      "yemen": 6135,
      "shirt": 6136,
      "spr": 6137,
      "bos": 6138,
      "disappeared": 6139,
      "assess": 6140,
      "preh": 6141,
      "writers": 6142,
      "drum": 6143,
      "sciences": 6144,
      "simplicity": 6145,
      "headed": 6146,
      "borrow": 6147,
      "trucks": 6148,
      "globalization": 6149,
      "burden": 6150,
      "typing": 6151,
      "spectac": 6152,
      "poster": 6153,
      "supported": 6154,
      "strongly": 6155,
      "suggesting": 6156,
      "darkness": 6157,
      "consciously": 6158,
      "detailed": 6159,
      "persist": 6160,
      "ghana": 6161,
      "collaborative": 6162,
      "defend": 6163,
      "nurse": 6164,
      "laughing": 6165,
      "immun": 6166,
      "quarters": 6167,
      "prosthetic": 6168,
      "academy": 6169,
      "insights": 6170,
      "tasman": 6171,
      "gathering": 6172,
      "reduced": 6173,
      "professionals": 6174,
      "inevitable": 6175,
      "sacrifice": 6176,
      "instructions": 6177,
      "pizza": 6178,
      "helicop": 6179,
      "antarctica": 6180,
      "700": 6181,
      "lions": 6182,
      "mum": 6183,
      "pam": 6184,
      "slo": 6185,
      "sink": 6186,
      "sits": 6187,
      "tid": 6188,
      "tam": 6189,
      "ubi": 6190,
      "ws": 6191,
      "intr": 6192,
      "anze": 6193,
      "anesthe": 6194,
      "onstage": 6195,
      "lege": 6196,
      "ented": 6197,
      "entropy": 6198,
      "verb": 6199,
      "lored": 6200,
      "neat": 6201,
      "febr": 6202,
      "cafe": 6203,
      "plug": 6204,
      "odds": 6205,
      "nois": 6206,
      "sauce": 6207,
      "restor": 6208,
      "parties": 6209,
      "underlying": 6210,
      "marks": 6211,
      "mines": 6212,
      "visions": 6213,
      "relax": 6214,
      "healthier": 6215,
      "settle": 6216,
      "skull": 6217,
      "probability": 6218,
      "begun": 6219,
      "profits": 6220,
      "elsewhere": 6221,
      "facility": 6222,
      "robotics": 6223,
      "programming": 6224,
      "magical": 6225,
      "innocent": 6226,
      "drove": 6227,
      "sentences": 6228,
      "fastest": 6229,
      "analog": 6230,
      "affects": 6231,
      "telephone": 6232,
      "dedicated": 6233,
      "secrets": 6234,
      "pushed": 6235,
      "leather": 6236,
      "activate": 6237,
      "hunting": 6238,
      "scores": 6239,
      "suspect": 6240,
      "influenced": 6241,
      "scanner": 6242,
      "christian": 6243,
      "israeli": 6244,
      "optimism": 6245,
      "integrated": 6246,
      "habitat": 6247,
      "compelling": 6248,
      "bags": 6249,
      "category": 6250,
      "route": 6251,
      "frequency": 6252,
      "qualities": 6253,
      "dialogue": 6254,
      "frustrated": 6255,
      "chimpanze": 6256,
      "fruit": 6257,
      "ownership": 6258,
      "reduction": 6259,
      "passenger": 6260,
      "dignity": 6261,
      "awkward": 6262,
      "february": 6263,
      "120": 6264,
      "85": 6265,
      "aj": 6266,
      "bure": 6267,
      "cd": 6268,
      "dump": 6269,
      "iac": 6270,
      "naked": 6271,
      "pile": 6272,
      "rab": 6273,
      "sche": 6274,
      "uct": 6275,
      "vity": 6276,
      "inherent": 6277,
      "recru": 6278,
      "ongoing": 6279,
      "toys": 6280,
      "assu": 6281,
      "stab": 6282,
      "icit": 6283,
      "icient": 6284,
      "forgotten": 6285,
      "abra": 6286,
      "output": 6287,
      "mood": 6288,
      "delay": 6289,
      "expo": 6290,
      "articles": 6291,
      "nove": 6292,
      "aps": 6293,
      "spots": 6294,
      "shelf": 6295,
      "chances": 6296,
      "choo": 6297,
      "obli": 6298,
      "aks": 6299,
      "smiling": 6300,
      "muscle": 6301,
      "joint": 6302,
      "attitude": 6303,
      "1970s": 6304,
      "viewer": 6305,
      "legacy": 6306,
      "responding": 6307,
      "grams": 6308,
      "steal": 6309,
      "biologists": 6310,
      "damn": 6311,
      "sunday": 6312,
      "industries": 6313,
      "eaten": 6314,
      "improving": 6315,
      "breakthrough": 6316,
      "defining": 6317,
      "silly": 6318,
      "footage": 6319,
      "microsoft": 6320,
      "photographed": 6321,
      "oxford": 6322,
      "suggested": 6323,
      "layers": 6324,
      "ethical": 6325,
      "genetically": 6326,
      "delivery": 6327,
      "luckily": 6328,
      "packed": 6329,
      "focusing": 6330,
      "arrive": 6331,
      "physician": 6332,
      "historic": 6333,
      "attractive": 6334,
      "transparent": 6335,
      "suspended": 6336,
      "refugees": 6337,
      "philanth": 6338,
      "reducing": 6339,
      "colonies": 6340,
      "revenue": 6341,
      "privilege": 6342,
      "portrait": 6343,
      "prosperity": 6344,
      "retirement": 6345,
      "currency": 6346,
      "dirty": 6347,
      "parallel": 6348,
      "cigaret": 6349,
      "curriculum": 6350,
      "32": 6351,
      "cree": 6352,
      "dor": 6353,
      "ku": 6354,
      "kins": 6355,
      "koran": 6356,
      "smar": 6357,
      "wings": 6358,
      "wider": 6359,
      "inate": 6360,
      "anatom": 6361,
      "recess": 6362,
      "rebuild": 6363,
      "tox": 6364,
      "eda": 6365,
      "lihood": 6366,
      "utical": 6367,
      "chop": 6368,
      "neo": 6369,
      "dose": 6370,
      "uncle": 6371,
      "confront": 6372,
      "maxim": 6373,
      "agent": 6374,
      "coca": 6375,
      "shr": 6376,
      "spark": 6377,
      "brut": 6378,
      "phan": 6379,
      "phony": 6380,
      "distract": 6381,
      "backwards": 6382,
      "syl": 6383,
      "formula": 6384,
      "posal": 6385,
      "hire": 6386,
      "basket": 6387,
      "pulling": 6388,
      "viral": 6389,
      "tooth": 6390,
      "warning": 6391,
      "brook": 6392,
      "shooting": 6393,
      "trains": 6394,
      "universities": 6395,
      "grandparents": 6396,
      "circul": 6397,
      "domestic": 6398,
      "breaks": 6399,
      "experimental": 6400,
      "tubes": 6401,
      "microbes": 6402,
      "specialized": 6403,
      "ancestors": 6404,
      "expressions": 6405,
      "includes": 6406,
      "targets": 6407,
      "representation": 6408,
      "genetics": 6409,
      "psychologist": 6410,
      "soldier": 6411,
      "originally": 6412,
      "judgment": 6413,
      "concern": 6414,
      "clients": 6415,
      "captain": 6416,
      "infection": 6417,
      "russian": 6418,
      "kyo": 6419,
      "accepted": 6420,
      "translated": 6421,
      "conservative": 6422,
      "additional": 6423,
      "restaurants": 6424,
      "egypti": 6425,
      "perceive": 6426,
      "dressed": 6427,
      "refugee": 6428,
      "lawyer": 6429,
      "hypothesis": 6430,
      "autonomous": 6431,
      "initial": 6432,
      "infinite": 6433,
      "orchestra": 6434,
      "categories": 6435,
      "taliban": 6436,
      "investors": 6437,
      "matrix": 6438,
      "keepers": 6439,
      "choosing": 6440,
      "smarter": 6441,
      "aer": 6442,
      "biz": 6443,
      "fits": 6444,
      "ogy": 6445,
      "skept": 6446,
      "tho": 6447,
      "independence": 6448,
      "resolution": 6449,
      "iso": 6450,
      "enables": 6451,
      "alien": 6452,
      "beij": 6453,
      "mobility": 6454,
      "goli": 6455,
      "suffe": 6456,
      "poison": 6457,
      "upload": 6458,
      "illust": 6459,
      "shit": 6460,
      "boss": 6461,
      "tale": 6462,
      "disorders": 6463,
      "cla": 6464,
      "forming": 6465,
      "impul": 6466,
      "pause": 6467,
      "pointing": 6468,
      "mature": 6469,
      "helpful": 6470,
      "cycles": 6471,
      "josh": 6472,
      "transmit": 6473,
      "insane": 6474,
      "headlines": 6475,
      "nerve": 6476,
      "traits": 6477,
      "pretend": 6478,
      "harness": 6479,
      "extrem": 6480,
      "excite": 6481,
      "grandchildren": 6482,
      "objective": 6483,
      "domain": 6484,
      "breakfast": 6485,
      "neuron": 6486,
      "mploy": 6487,
      "promote": 6488,
      "peaceful": 6489,
      "panel": 6490,
      "array": 6491,
      "arrange": 6492,
      "confused": 6493,
      "unemploy": 6494,
      "garage": 6495,
      "smooth": 6496,
      "immediate": 6497,
      "inspire": 6498,
      "association": 6499,
      "documents": 6500,
      "fuels": 6501,
      "precious": 6502,
      "diagnosis": 6503,
      "remained": 6504,
      "pleasant": 6505,
      "campus": 6506,
      "analyze": 6507,
      "algorithm": 6508,
      "penguin": 6509,
      "reminded": 6510,
      "terrorism": 6511,
      "circuits": 6512,
      "miracle": 6513,
      "spanish": 6514,
      "december": 6515,
      "items": 6516,
      "magnetic": 6517,
      "miserable": 6518,
      "beijing": 6519,
      "31": 6520,
      "bind": 6521,
      "crop": 6522,
      "eleg": 6523,
      "fg": 6524,
      "fought": 6525,
      "gig": 6526,
      "hm": 6527,
      "jef": 6528,
      "pandem": 6529,
      "tissues": 6530,
      "uous": 6531,
      "zes": 6532,
      "thor": 6533,
      "anas": 6534,
      "anno": 6535,
      "edition": 6536,
      "edges": 6537,
      "stig": 6538,
      "lywood": 6539,
      "healing": 6540,
      "merely": 6541,
      "otion": 6542,
      "neander": 6543,
      "dood": 6544,
      "ceo": 6545,
      "opposed": 6546,
      "ambig": 6547,
      "convert": 6548,
      "proposed": 6549,
      "managers": 6550,
      "render": 6551,
      "shri": 6552,
      "sheets": 6553,
      "firing": 6554,
      "discrimin": 6555,
      "guer": 6556,
      "strand": 6557,
      "blame": 6558,
      "berry": 6559,
      "spell": 6560,
      "offices": 6561,
      "turkey": 6562,
      "dra": 6563,
      "engines": 6564,
      "biotech": 6565,
      "earn": 6566,
      "funds": 6567,
      "insist": 6568,
      "primarily": 6569,
      "ski": 6570,
      "2001": 6571,
      "uganda": 6572,
      "extension": 6573,
      "angles": 6574,
      "facilities": 6575,
      "frontal": 6576,
      "audio": 6577,
      "devil": 6578,
      "engineered": 6579,
      "mingly": 6580,
      "difficulty": 6581,
      "pursuit": 6582,
      "nonprofit": 6583,
      "involve": 6584,
      "woke": 6585,
      "gradually": 6586,
      "sisters": 6587,
      "index": 6588,
      "recep": 6589,
      "emerge": 6590,
      "medicines": 6591,
      "shops": 6592,
      "pige": 6593,
      "iranian": 6594,
      "sharp": 6595,
      "weapon": 6596,
      "hanging": 6597,
      "routine": 6598,
      "blowing": 6599,
      "substance": 6600,
      "flexible": 6601,
      "procedure": 6602,
      "palestin": 6603,
      "chips": 6604,
      "remembered": 6605,
      "occasionally": 6606,
      "jesus": 6607,
      "paralyzed": 6608,
      "florida": 6609,
      "tongue": 6610,
      "bureau": 6611,
      "bizar": 6612,
      "suffered": 6613,
      "fred": 6614,
      "gaz": 6615,
      "hr": 6616,
      "mals": 6617,
      "nodes": 6618,
      "punch": 6619,
      "rang": 6620,
      "sca": 6621,
      "tone": 6622,
      "voting": 6623,
      "wright": 6624,
      "repor": 6625,
      "aland": 6626,
      "aspir": 6627,
      "leaf": 6628,
      "static": 6629,
      "whis": 6630,
      "beating": 6631,
      "soever": 6632,
      "soviet": 6633,
      "mex": 6634,
      "gear": 6635,
      "dozens": 6636,
      "iring": 6637,
      "deaf": 6638,
      "unpreced": 6639,
      "imper": 6640,
      "whatsoever": 6641,
      "compreh": 6642,
      "pling": 6643,
      "pless": 6644,
      "manager": 6645,
      "donor": 6646,
      "iveness": 6647,
      "aceutical": 6648,
      "bob": 6649,
      "twenty": 6650,
      "mud": 6651,
      "clon": 6652,
      "differenti": 6653,
      "gotta": 6654,
      "choir": 6655,
      "intervention": 6656,
      "caring": 6657,
      "cert": 6658,
      "landed": 6659,
      "august": 6660,
      "completed": 6661,
      "generous": 6662,
      "traum": 6663,
      "expans": 6664,
      "regime": 6665,
      "summar": 6666,
      "harbor": 6667,
      "pressed": 6668,
      "factories": 6669,
      "daniel": 6670,
      "opera": 6671,
      "bene": 6672,
      "millen": 6673,
      "octo": 6674,
      "democrat": 6675,
      "iences": 6676,
      "emphas": 6677,
      "drawings": 6678,
      "nik": 6679,
      "personalized": 6680,
      "boards": 6681,
      "rainforest": 6682,
      "terrifying": 6683,
      "lamp": 6684,
      "shipping": 6685,
      "mechanisms": 6686,
      "syndr": 6687,
      "homo": 6688,
      "daughters": 6689,
      "straightforward": 6690,
      "broadcast": 6691,
      "wealthy": 6692,
      "bubbles": 6693,
      "conclude": 6694,
      "surgeons": 6695,
      "previously": 6696,
      "heaven": 6697,
      "retina": 6698,
      "isolated": 6699,
      "fragile": 6700,
      "briefly": 6701,
      "observation": 6702,
      "preserve": 6703,
      "announced": 6704,
      "preparing": 6705,
      "athletes": 6706,
      "pharmaceutical": 6707,
      "eradic": 6708,
      "excellent": 6709,
      "rehabil": 6710,
      "hemisphere": 6711,
      "spectacular": 6712,
      "ubiquit": 6713,
      "bizarre": 6714,
      "unprecedented": 6715,
      "apers": 6716,
      "bass": 6717,
      "dv": 6718,
      "dal": 6719,
      "mics": 6720,
      "nap": 6721,
      "ske": 6722,
      "uel": 6723,
      "threw": 6724,
      "inches": 6725,
      "rein": 6726,
      "recover": 6727,
      "tori": 6728,
      "arthur": 6729,
      "stability": 6730,
      "habits": 6731,
      "meg": 6732,
      "meals": 6733,
      "abul": 6734,
      "neu": 6735,
      "amate": 6736,
      "suck": 6737,
      "percept": 6738,
      "prostate": 6739,
      "mann": 6740,
      "coli": 6741,
      "umes": 6742,
      "bored": 6743,
      "disabled": 6744,
      "possess": 6745,
      "observe": 6746,
      "ishment": 6747,
      "commission": 6748,
      "socio": 6749,
      "fined": 6750,
      "calories": 6751,
      "mindset": 6752,
      "homework": 6753,
      "norway": 6754,
      "linear": 6755,
      "valid": 6756,
      "elected": 6757,
      "label": 6758,
      "extend": 6759,
      "freely": 6760,
      "hormon": 6761,
      "hormone": 6762,
      "reliable": 6763,
      "posted": 6764,
      "arguing": 6765,
      "silk": 6766,
      "besides": 6767,
      "description": 6768,
      "jec": 6769,
      "panels": 6770,
      "widely": 6771,
      "folds": 6772,
      "garbage": 6773,
      "texas": 6774,
      "clinics": 6775,
      "ville": 6776,
      "performed": 6777,
      "hiding": 6778,
      "capitalism": 6779,
      "honestly": 6780,
      "throwing": 6781,
      "claims": 6782,
      "remaining": 6783,
      "dynamics": 6784,
      "intuition": 6785,
      "expanding": 6786,
      "constructed": 6787,
      "fabulous": 6788,
      "mammals": 6789,
      "newspapers": 6790,
      "sacred": 6791,
      "accounts": 6792,
      "thirds": 6793,
      "tweet": 6794,
      "bottles": 6795,
      "friday": 6796,
      "scholars": 6797,
      "william": 6798,
      "responses": 6799,
      "marathon": 6800,
      "tragedy": 6801,
      "beneath": 6802,
      "october": 6803,
      "ubiquitous": 6804,
      "amateur": 6805,
      "55": 6806,
      "aa": 6807,
      "bam": 6808,
      "bite": 6809,
      "dated": 6810,
      "hung": 6811,
      "jok": 6812,
      "lac": 6813,
      "rick": 6814,
      "thesis": 6815,
      "reminds": 6816,
      "altit": 6817,
      "lego": 6818,
      "leban": 6819,
      "stir": 6820,
      "acid": 6821,
      "hai": 6822,
      "pep": 6823,
      "gods": 6824,
      "usal": 6825,
      "terrain": 6826,
      "worm": 6827,
      "tray": 6828,
      "trace": 6829,
      "cathe": 6830,
      "mainst": 6831,
      "mapping": 6832,
      "ultras": 6833,
      "seeking": 6834,
      "coke": 6835,
      "shy": 6836,
      "shed": 6837,
      "bris": 6838,
      "brave": 6839,
      "umps": 6840,
      "elly": 6841,
      "elite": 6842,
      "partly": 6843,
      "aft": 6844,
      "crows": 6845,
      "intensive": 6846,
      "despair": 6847,
      "council": 6848,
      "realistic": 6849,
      "realizing": 6850,
      "duck": 6851,
      "carri": 6852,
      "flaw": 6853,
      "mini": 6854,
      "shakes": 6855,
      "simult": 6856,
      "cyrus": 6857,
      "cylind": 6858,
      "transcend": 6859,
      "diam": 6860,
      "prim": 6861,
      "mentor": 6862,
      "aircraft": 6863,
      "hardware": 6864,
      "charming": 6865,
      "charlie": 6866,
      "prisons": 6867,
      "fiber": 6868,
      "stewart": 6869,
      "bedroom": 6870,
      "biologist": 6871,
      "shore": 6872,
      "speaks": 6873,
      "circles": 6874,
      "empire": 6875,
      "tune": 6876,
      "ordinarily": 6877,
      "supporting": 6878,
      "nearby": 6879,
      "slums": 6880,
      "smartphone": 6881,
      "diving": 6882,
      "emerged": 6883,
      "authors": 6884,
      "predicted": 6885,
      "mandela": 6886,
      "ecosystems": 6887,
      "vertical": 6888,
      "deliber": 6889,
      "smoking": 6890,
      "prisoners": 6891,
      "threatened": 6892,
      "believes": 6893,
      "strip": 6894,
      "catal": 6895,
      "wheels": 6896,
      "officer": 6897,
      "profoundly": 6898,
      "contrary": 6899,
      "collapsed": 6900,
      "puzzles": 6901,
      "storm": 6902,
      "ignored": 6903,
      "vascular": 6904,
      "insulin": 6905,
      "mosquitos": 6906,
      "somed": 6907,
      "fisher": 6908,
      "discipline": 6909,
      "shelter": 6910,
      "candidate": 6911,
      "stairs": 6912,
      "physi": 6913,
      "comparison": 6914,
      "database": 6915,
      "fertiliz": 6916,
      "illustrate": 6917,
      "syndrome": 6918,
      "36": 6919,
      "bak": 6920,
      "nie": 6921,
      "pants": 6922,
      "qa": 6923,
      "tz": 6924,
      "wrest": 6925,
      "onaut": 6926,
      "errors": 6927,
      "enlight": 6928,
      "encing": 6929,
      "esthetic": 6930,
      "haw": 6931,
      "lian": 6932,
      "verbal": 6933,
      "rog": 6934,
      "geome": 6935,
      "neck": 6936,
      "unable": 6937,
      "usage": 6938,
      "ife": 6939,
      "iment": 6940,
      "butter": 6941,
      "ctu": 6942,
      "contemporary": 6943,
      "cath": 6944,
      "myce": 6945,
      "perm": 6946,
      "comments": 6947,
      "compromise": 6948,
      "indones": 6949,
      "covers": 6950,
      "apor": 6951,
      "shir": 6952,
      "disrupt": 6953,
      "crush": 6954,
      "intended": 6955,
      "holy": 6956,
      "leton": 6957,
      "restim": 6958,
      "interconnected": 6959,
      "marg": 6960,
      "sons": 6961,
      "wrap": 6962,
      "mono": 6963,
      "storytelling": 6964,
      "kidney": 6965,
      "2050": 6966,
      "1990s": 6967,
      "crimes": 6968,
      "lanes": 6969,
      "laure": 6970,
      "profile": 6971,
      "responds": 6972,
      "nights": 6973,
      "angered": 6974,
      "treatments": 6975,
      "hybrid": 6976,
      "sexy": 6977,
      "excuse": 6978,
      "winner": 6979,
      "gorge": 6980,
      "jewish": 6981,
      "flowing": 6982,
      "tends": 6983,
      "divor": 6984,
      "division": 6985,
      "experiencing": 6986,
      "exception": 6987,
      "concert": 6988,
      "dimension": 6989,
      "hollywood": 6990,
      "threats": 6991,
      "mathematic": 6992,
      "variation": 6993,
      "competitive": 6994,
      "immigr": 6995,
      "surrounding": 6996,
      "corporations": 6997,
      "paste": 6998,
      "dictionaries": 6999,
      "rituals": 7000,
      "satellites": 7001,
      "script": 7002,
      "thylac": 7003,
      "initially": 7004,
      "wedding": 7005,
      "navigate": 7006,
      "ceremony": 7007,
      "devastating": 7008,
      "atlantic": 7009,
      "heritage": 7010,
      "glacier": 7011,
      "guarantee": 7012,
      "schizophrenia": 7013,
      "excitement": 7014,
      "someday": 7015,
      "37": 7016,
      "bac": 7017,
      "junk": 7018,
      "jelly": 7019,
      "nu": 7020,
      "nis": 7021,
      "pic": 7022,
      "tact": 7023,
      "torian": 7024,
      "andrew": 7025,
      "enthus": 7026,
      "ingen": 7027,
      "asle": 7028,
      "chile": 7029,
      "rope": 7030,
      "rolled": 7031,
      "ares": 7032,
      "detro": 7033,
      "rivers": 7034,
      "cel": 7035,
      "cano": 7036,
      "ador": 7037,
      "artistic": 7038,
      "ounce": 7039,
      "olic": 7040,
      "safer": 7041,
      "colored": 7042,
      "embod": 7043,
      "twist": 7044,
      "buried": 7045,
      "happily": 7046,
      "backyard": 7047,
      "prem": 7048,
      "genu": 7049,
      "contag": 7050,
      "marry": 7051,
      "readers": 7052,
      "icked": 7053,
      "fault": 7054,
      "surfaces": 7055,
      "socially": 7056,
      "stored": 7057,
      "monkeys": 7058,
      "meanwhile": 7059,
      "highway": 7060,
      "augment": 7061,
      "attend": 7062,
      "diagram": 7063,
      "hometown": 7064,
      "norden": 7065,
      "subway": 7066,
      "passes": 7067,
      "italy": 7068,
      "denial": 7069,
      "leged": 7070,
      "ugal": 7071,
      "structural": 7072,
      "suppress": 7073,
      "swiss": 7074,
      "burned": 7075,
      "approxim": 7076,
      "potato": 7077,
      "listened": 7078,
      "radically": 7079,
      "winds": 7080,
      "democracies": 7081,
      "dropping": 7082,
      "innovations": 7083,
      "marker": 7084,
      "fallen": 7085,
      "climbing": 7086,
      "investing": 7087,
      "ticket": 7088,
      "architectural": 7089,
      "tendency": 7090,
      "destro": 7091,
      "psychologists": 7092,
      "totle": 7093,
      "bacterial": 7094,
      "sections": 7095,
      "wildlife": 7096,
      "hopes": 7097,
      "significantly": 7098,
      "continuing": 7099,
      "demands": 7100,
      "compete": 7101,
      "guns": 7102,
      "candy": 7103,
      "reveals": 7104,
      "consequence": 7105,
      "tana": 7106,
      "volunteer": 7107,
      "expertise": 7108,
      "perceived": 7109,
      "mushrooms": 7110,
      "strategic": 7111,
      "exhibition": 7112,
      "regardless": 7113,
      "aristotle": 7114,
      "lord": 7115,
      "barrier": 7116,
      "arrested": 7117,
      "column": 7118,
      "cousin": 7119,
      "tackle": 7120,
      "controversi": 7121,
      "spont": 7122,
      "champion": 7123,
      "chapter": 7124,
      "obstacles": 7125,
      "gandhi": 7126,
      "tragic": 7127,
      "iceland": 7128,
      "jeff": 7129,
      "guerrill": 7130,
      "gorgeous": 7131,
      "asleep": 7132,
      "38": 7133,
      "42": 7134,
      "47": 7135,
      "avi": 7136,
      "bie": 7137,
      "dys": 7138,
      "dawn": 7139,
      "ek": 7140,
      "fest": 7141,
      "gments": 7142,
      "gases": 7143,
      "mich": 7144,
      "ngos": 7145,
      "pad": 7146,
      "sized": 7147,
      "tus": 7148,
      "yards": 7149,
      "thres": 7150,
      "ream": 7151,
      "reck": 7152,
      "resolve": 7153,
      "reactions": 7154,
      "itate": 7155,
      "ester": 7156,
      "icting": 7157,
      "haz": 7158,
      "forgot": 7159,
      "rocks": 7160,
      "ghter": 7161,
      "motors": 7162,
      "gore": 7163,
      "deals": 7164,
      "confron": 7165,
      "proven": 7166,
      "artwork": 7167,
      "ola": 7168,
      "aint": 7169,
      "manif": 7170,
      "gran": 7171,
      "civic": 7172,
      "tier": 7173,
      "yourselves": 7174,
      "shred": 7175,
      "shang": 7176,
      "spray": 7177,
      "ansas": 7178,
      "owner": 7179,
      "formal": 7180,
      "lottery": 7181,
      "genoc": 7182,
      "crew": 7183,
      "server": 7184,
      "courses": 7185,
      "singapo": 7186,
      "rape": 7187,
      "pointed": 7188,
      "cellular": 7189,
      "patents": 7190,
      "generating": 7191,
      "greg": 7192,
      "banking": 7193,
      "educate": 7194,
      "signature": 7195,
      "connects": 7196,
      "household": 7197,
      "ashed": 7198,
      "demos": 7199,
      "demographic": 7200,
      "kills": 7201,
      "audiences": 7202,
      "stein": 7203,
      "stead": 7204,
      "stephen": 7205,
      "glor": 7206,
      "cuts": 7207,
      "bench": 7208,
      "asteroid": 7209,
      "cambod": 7210,
      "measures": 7211,
      "failures": 7212,
      "rows": 7213,
      "purposes": 7214,
      "supermarket": 7215,
      "traditions": 7216,
      "survived": 7217,
      "approaches": 7218,
      "truths": 7219,
      "panic": 7220,
      "similarly": 7221,
      "reports": 7222,
      "ministry": 7223,
      "package": 7224,
      "rolls": 7225,
      "graduated": 7226,
      "achievement": 7227,
      "sadly": 7228,
      "placing": 7229,
      "mysterious": 7230,
      "racing": 7231,
      "symbols": 7232,
      "watson": 7233,
      "recipe": 7234,
      "thirty": 7235,
      "grocer": 7236,
      "dictator": 7237,
      "barriers": 7238,
      "constraints": 7239,
      "clusters": 7240,
      "condoms": 7241,
      "nutrients": 7242,
      "trigger": 7243,
      "lifespan": 7244,
      "pyramid": 7245,
      "wandering": 7246,
      "unbelievable": 7247,
      "november": 7248,
      "mainstream": 7249,
      "indonesia": 7250,
      "singapore": 7251,
      "batt": 7252,
      "dun": 7253,
      "file": 7254,
      "hh": 7255,
      "hors": 7256,
      "hunt": 7257,
      "hilar": 7258,
      "jay": 7259,
      "santa": 7260,
      "tables": 7261,
      "tiger": 7262,
      "ini": 7263,
      "theore": 7264,
      "rethink": 7265,
      "reinvent": 7266,
      "attem": 7267,
      "onia": 7268,
      "tomato": 7269,
      "encoun": 7270,
      "align": 7271,
      "asters": 7272,
      "icious": 7273,
      "accent": 7274,
      "soap": 7275,
      "melt": 7276,
      "roc": 7277,
      "peare": 7278,
      "defic": 7279,
      "imes": 7280,
      "aded": 7281,
      "sake": 7282,
      "rescu": 7283,
      "pockets": 7284,
      "endangered": 7285,
      "spi": 7286,
      "pride": 7287,
      "boots": 7288,
      "phic": 7289,
      "shepher": 7290,
      "clue": 7291,
      "intervent": 7292,
      "offering": 7293,
      "wrapped": 7294,
      "drought": 7295,
      "miner": 7296,
      "culti": 7297,
      "tedtalks": 7298,
      "foundations": 7299,
      "planned": 7300,
      "1960": 7301,
      "trail": 7302,
      "trajec": 7303,
      "lang": 7304,
      "applying": 7305,
      "shocked": 7306,
      "burgh": 7307,
      "bond": 7308,
      "seventh": 7309,
      "drew": 7310,
      "zealand": 7311,
      "explosion": 7312,
      "fireflies": 7313,
      "analogy": 7314,
      "copes": 7315,
      "particle": 7316,
      "riding": 7317,
      "chron": 7318,
      "aneous": 7319,
      "spreads": 7320,
      "sale": 7321,
      "affecting": 7322,
      "included": 7323,
      "representative": 7324,
      "ecological": 7325,
      "blindness": 7326,
      "pairs": 7327,
      "calculations": 7328,
      "nuts": 7329,
      "teenage": 7330,
      "teenager": 7331,
      "officials": 7332,
      "nelson": 7333,
      "gained": 7334,
      "interviews": 7335,
      "immense": 7336,
      "golden": 7337,
      "customer": 7338,
      "mastery": 7339,
      "exercis": 7340,
      "estimates": 7341,
      "assemble": 7342,
      "ritual": 7343,
      "installed": 7344,
      "elementary": 7345,
      "pigs": 7346,
      "institutional": 7347,
      "propag": 7348,
      "magnific": 7349,
      "dutch": 7350,
      "mimic": 7351,
      "embarrassing": 7352,
      "whistle": 7353,
      "carolina": 7354,
      "breeding": 7355,
      "rosling": 7356,
      "neutral": 7357,
      "abandoned": 7358,
      "bronx": 7359,
      "recommend": 7360,
      "glimpse": 7361,
      "pandemic": 7362,
      "shrimp": 7363,
      "hormones": 7364,
      "ultrasound": 7365,
      "shakespeare": 7366,
      "genuine": 7367,
      "controversial": 7368,
      "shanghai": 7369,
      "interventions": 7370,
      "ape": 7371,
      "bb": 7372,
      "dian": 7373,
      "hong": 7374,
      "iop": 7375,
      "kis": 7376,
      "kir": 7377,
      "lak": 7378,
      "ored": 7379,
      "rof": 7380,
      "sab": 7381,
      "inmates": 7382,
      "toast": 7383,
      "enna": 7384,
      "enjo": 7385,
      "ora": 7386,
      "leon": 7387,
      "acknowled": 7388,
      "sole": 7389,
      "metr": 7390,
      "chess": 7391,
      "iders": 7392,
      "wires": 7393,
      "loving": 7394,
      "pear": 7395,
      "ril": 7396,
      "worms": 7397,
      "congest": 7398,
      "suits": 7399,
      "fraction": 7400,
      "frames": 7401,
      "odor": 7402,
      "agents": 7403,
      "illance": 7404,
      "shots": 7405,
      "donald": 7406,
      "cratic": 7407,
      "enses": 7408,
      "counting": 7409,
      "obtain": 7410,
      "obese": 7411,
      "interpre": 7412,
      "turk": 7413,
      "prescri": 7414,
      "flavor": 7415,
      "stopping": 7416,
      "tedtalk": 7417,
      "visually": 7418,
      "2012": 7419,
      "cheat": 7420,
      "transmission": 7421,
      "1980s": 7422,
      "autistic": 7423,
      "topics": 7424,
      "subur": 7425,
      "charged": 7426,
      "momentum": 7427,
      "2002": 7428,
      "capabilities": 7429,
      "sixth": 7430,
      "beautifully": 7431,
      "burger": 7432,
      "collectively": 7433,
      "parenting": 7434,
      "improv": 7435,
      "invested": 7436,
      "microscop": 7437,
      "juice": 7438,
      "juries": 7439,
      "surviv": 7440,
      "deadly": 7441,
      "statistic": 7442,
      "venture": 7443,
      "mike": 7444,
      "forestation": 7445,
      "salt": 7446,
      "folded": 7447,
      "destiny": 7448,
      "locations": 7449,
      "mechanics": 7450,
      "encyclo": 7451,
      "bullet": 7452,
      "sweep": 7453,
      "masters": 7454,
      "strike": 7455,
      "scanning": 7456,
      "deserve": 7457,
      "reflection": 7458,
      "discovering": 7459,
      "integration": 7460,
      "physicians": 7461,
      "classrooms": 7462,
      "passage": 7463,
      "cooperate": 7464,
      "incentive": 7465,
      "frequently": 7466,
      "telescopes": 7467,
      "autonomy": 7468,
      "simplest": 7469,
      "candidates": 7470,
      "constitution": 7471,
      "knife": 7472,
      "desperately": 7473,
      "promised": 7474,
      "reconci": 7475,
      "abraham": 7476,
      "recession": 7477,
      "scaf": 7478,
      "mycelium": 7479,
      "bend": 7480,
      "cad": 7481,
      "dens": 7482,
      "fate": 7483,
      "gur": 7484,
      "jung": 7485,
      "kr": 7486,
      "mild": 7487,
      "sla": 7488,
      "til": 7489,
      "tide": 7490,
      "yr": 7491,
      "ano": 7492,
      "rewards": 7493,
      "enh": 7494,
      "envelo": 7495,
      "enabled": 7496,
      "itzer": 7497,
      "esign": 7498,
      "asian": 7499,
      "beth": 7500,
      "hawa": 7501,
      "idi": 7502,
      "pel": 7503,
      "neys": 7504,
      "dopam": 7505,
      "unhappy": 7506,
      "advoc": 7507,
      "convey": 7508,
      "tee": 7509,
      "cage": 7510,
      "plates": 7511,
      "nology": 7512,
      "sail": 7513,
      "manual": 7514,
      "upset": 7515,
      "tips": 7516,
      "redesign": 7517,
      "thane": 7518,
      "bleed": 7519,
      "00s": 7520,
      "kings": 7521,
      "guil": 7522,
      "stranger": 7523,
      "criter": 7524,
      "goodbye": 7525,
      "hips": 7526,
      "interrup": 7527,
      "reader": 7528,
      "downtown": 7529,
      "shaking": 7530,
      "handed": 7531,
      "simulation": 7532,
      "fried": 7533,
      "graphs": 7534,
      "airplanes": 7535,
      "gathered": 7536,
      "reasonable": 7537,
      "extinction": 7538,
      "temple": 7539,
      "explicit": 7540,
      "stepped": 7541,
      "freezing": 7542,
      "damaged": 7543,
      "gesture": 7544,
      "namely": 7545,
      "camps": 7546,
      "planted": 7547,
      "july": 7548,
      "landscapes": 7549,
      "flows": 7550,
      "websites": 7551,
      "cardio": 7552,
      "medication": 7553,
      "challenged": 7554,
      "transforming": 7555,
      "woods": 7556,
      "cliff": 7557,
      "believing": 7558,
      "cruel": 7559,
      "brands": 7560,
      "blogging": 7561,
      "physicists": 7562,
      "sexuality": 7563,
      "tunnel": 7564,
      "smells": 7565,
      "tension": 7566,
      "historically": 7567,
      "surveillance": 7568,
      "determines": 7569,
      "injured": 7570,
      "lungs": 7571,
      "impression": 7572,
      "boost": 7573,
      "manipulate": 7574,
      "concentration": 7575,
      "simpler": 7576,
      "electrodes": 7577,
      "ambitious": 7578,
      "disturbing": 7579,
      "grasp": 7580,
      "hallucinations": 7581,
      "intriguing": 7582,
      "aggressive": 7583,
      "replicate": 7584,
      "legislation": 7585,
      "joseph": 7586,
      "joshua": 7587,
      "expansion": 7588,
      "simultaneously": 7589,
      "cylinder": 7590,
      "primitive": 7591,
      "catholic": 7592,
      "genocide": 7593,
      "dopamine": 7594,
      "46": 7595,
      "58": 7596,
      "aesthetic": 7597,
      "bis": 7598,
      "dating": 7599,
      "gill": 7600,
      "hated": 7601,
      "ja": 7602,
      "jane": 7603,
      "kit": 7604,
      "kiss": 7605,
      "lion": 7606,
      "ost": 7607,
      "treas": 7608,
      "vary": 7609,
      "wan": 7610,
      "zim": 7611,
      "informed": 7612,
      "theories": 7613,
      "recall": 7614,
      "replaced": 7615,
      "erg": 7616,
      "erness": 7617,
      "enem": 7618,
      "alan": 7619,
      "album": 7620,
      "ingu": 7621,
      "itating": 7622,
      "itudes": 7623,
      "ardo": 7624,
      "leverage": 7625,
      "staring": 7626,
      "stake": 7627,
      "semin": 7628,
      "bean": 7629,
      "acre": 7630,
      "acknowledge": 7631,
      "soc": 7632,
      "entry": 7633,
      "wil": 7634,
      "kevin": 7635,
      "immers": 7636,
      "ambul": 7637,
      "actively": 7638,
      "prose": 7639,
      "proposal": 7640,
      "articul": 7641,
      "quate": 7642,
      "mentally": 7643,
      "apples": 7644,
      "shout": 7645,
      "workforce": 7646,
      "brick": 7647,
      "pra": 7648,
      "newton": 7649,
      "phal": 7650,
      "talents": 7651,
      "channels": 7652,
      "disability": 7653,
      "straw": 7654,
      "clues": 7655,
      "cracy": 7656,
      "prevention": 7657,
      "realm": 7658,
      "carries": 7659,
      "findings": 7660,
      "lessness": 7661,
      "faction": 7662,
      "builds": 7663,
      "helpless": 7664,
      "matt": 7665,
      "20s": 7666,
      "heading": 7667,
      "nerves": 7668,
      "extended": 7669,
      "figur": 7670,
      "badly": 7671,
      "answering": 7672,
      "squee": 7673,
      "approved": 7674,
      "millimeter": 7675,
      "appeal": 7676,
      "deepest": 7677,
      "violin": 7678,
      "investments": 7679,
      "winners": 7680,
      "girlfriend": 7681,
      "remitt": 7682,
      "penn": 7683,
      "filmmaker": 7684,
      "balls": 7685,
      "bills": 7686,
      "pollut": 7687,
      "suggestion": 7688,
      "tracks": 7689,
      "authorities": 7690,
      "participation": 7691,
      "bulb": 7692,
      "raises": 7693,
      "detection": 7694,
      "remarkably": 7695,
      "appearance": 7696,
      "courageous": 7697,
      "continuous": 7698,
      "integrate": 7699,
      "jumped": 7700,
      "contribution": 7701,
      "interviewed": 7702,
      "competing": 7703,
      "immort": 7704,
      "correctly": 7705,
      "tumors": 7706,
      "civilizations": 7707,
      "gentleman": 7708,
      "murder": 7709,
      "astronaut": 7710,
      "storage": 7711,
      "vacu": 7712,
      "limitations": 7713,
      "conducted": 7714,
      "ibm": 7715,
      "bathroom": 7716,
      "gallery": 7717,
      "encouraging": 7718,
      "recycled": 7719,
      "bombsight": 7720,
      "beetles": 7721,
      "labeled": 7722,
      "luxury": 7723,
      "pursue": 7724,
      "minority": 7725,
      "veterans": 7726,
      "stunning": 7727,
      "tasmanian": 7728,
      "helicopter": 7729,
      "intrins": 7730,
      "pigeon": 7731,
      "rehabilitation": 7732,
      "altitude": 7733,
      "qaeda": 7734,
      "detroit": 7735,
      "threshold": 7736,
      "manifest": 7737,
      "magnificent": 7738,
      "encycloped": 7739,
      "guilty": 7740,
      "criteria": 7741,
      "athe": 7742,
      "awe": 7743,
      "cs": 7744,
      "ccoli": 7745,
      "dd": 7746,
      "fancy": 7747,
      "jill": 7748,
      "jones": 7749,
      "kers": 7750,
      "kite": 7751,
      "lum": 7752,
      "mun": 7753,
      "mig": 7754,
      "ogen": 7755,
      "pis": 7756,
      "sne": 7757,
      "sna": 7758,
      "uri": 7759,
      "wins": 7760,
      "yan": 7761,
      "inary": 7762,
      "injuries": 7763,
      "revel": 7764,
      "reclaim": 7765,
      "enzy": 7766,
      "alli": 7767,
      "lever": 7768,
      "stad": 7769,
      "beef": 7770,
      "haust": 7771,
      "methane": 7772,
      "ched": 7773,
      "oton": 7774,
      "roach": 7775,
      "gel": 7776,
      "outrage": 7777,
      "canad": 7778,
      "tel": 7779,
      "caps": 7780,
      "permission": 7781,
      "proposition": 7782,
      "exhaust": 7783,
      "upside": 7784,
      "cosm": 7785,
      "empowered": 7786,
      "disasters": 7787,
      "udi": 7788,
      "backs": 7789,
      "syring": 7790,
      "specul": 7791,
      "genomes": 7792,
      "counsel": 7793,
      "selfish": 7794,
      "offspring": 7795,
      "humanitarian": 7796,
      "lectures": 7797,
      "minus": 7798,
      "systematically": 7799,
      "montana": 7800,
      "versions": 7801,
      "fundra": 7802,
      "gang": 7803,
      "storytell": 7804,
      "nevertheless": 7805,
      "uniform": 7806,
      "caregi": 7807,
      "1990": 7808,
      "warri": 7809,
      "projections": 7810,
      "africans": 7811,
      "expedition": 7812,
      "hardest": 7813,
      "regis": 7814,
      "vocal": 7815,
      "legend": 7816,
      "capability": 7817,
      "incidence": 7818,
      "broccoli": 7819,
      "metro": 7820,
      "supplies": 7821,
      "biosphere": 7822,
      "glu": 7823,
      "messy": 7824,
      "scales": 7825,
      "prediction": 7826,
      "purple": 7827,
      "bribe": 7828,
      "pene": 7829,
      "juven": 7830,
      "extraordinarily": 7831,
      "ventil": 7832,
      "terrified": 7833,
      "laden": 7834,
      "slip": 7835,
      "wooden": 7836,
      "judgments": 7837,
      "concerns": 7838,
      "conception": 7839,
      "bridges": 7840,
      "texts": 7841,
      "scoop": 7842,
      "batteries": 7843,
      "raped": 7844,
      "striking": 7845,
      "belly": 7846,
      "instruction": 7847,
      "royal": 7848,
      "journalists": 7849,
      "annual": 7850,
      "fatal": 7851,
      "enjoyed": 7852,
      "embracing": 7853,
      "motivated": 7854,
      "worrying": 7855,
      "gaps": 7856,
      "troops": 7857,
      "tanzan": 7858,
      "regularly": 7859,
      "assumption": 7860,
      "technically": 7861,
      "bowl": 7862,
      "partnership": 7863,
      "stimul": 7864,
      "pills": 7865,
      "succeeded": 7866,
      "grains": 7867,
      "sculptures": 7868,
      "fragment": 7869,
      "voted": 7870,
      "minimum": 7871,
      "dolphin": 7872,
      "established": 7873,
      "frightening": 7874,
      "overwhelmed": 7875,
      "astronomers": 7876,
      "feminist": 7877,
      "hetti": 7878,
      "lonely": 7879,
      "cotton": 7880,
      "censor": 7881,
      "stabili": 7882,
      "discrimination": 7883,
      "shepherd": 7884,
      "cultiv": 7885,
      "trajectory": 7886,
      "vacuum": 7887,
      "44": 7888,
      "ao": 7889,
      "dil": 7890,
      "gers": 7891,
      "gross": 7892,
      "hou": 7893,
      "lists": 7894,
      "lined": 7895,
      "mously": 7896,
      "sperm": 7897,
      "yer": 7898,
      "zones": 7899,
      "infer": 7900,
      "anni": 7901,
      "reproduce": 7902,
      "ero": 7903,
      "ena": 7904,
      "arbit": 7905,
      "edi": 7906,
      "sew": 7907,
      "secular": 7908,
      "oma": 7909,
      "icial": 7910,
      "icides": 7911,
      "iconic": 7912,
      "acids": 7913,
      "hamed": 7914,
      "ller": 7915,
      "mere": 7916,
      "forbid": 7917,
      "wives": 7918,
      "gevity": 7919,
      "kel": 7920,
      "loose": 7921,
      "modest": 7922,
      "advis": 7923,
      "caves": 7924,
      "fram": 7925,
      "propose": 7926,
      "aghetti": 7927,
      "illusions": 7928,
      "seemingly": 7929,
      "apy": 7930,
      "spaghetti": 7931,
      "twins": 7932,
      "disney": 7933,
      "blan": 7934,
      "blur": 7935,
      "blown": 7936,
      "clint": 7937,
      "format": 7938,
      "craw": 7939,
      "shower": 7940,
      "observed": 7941,
      "hired": 7942,
      "contest": 7943,
      "marrow": 7944,
      "vial": 7945,
      "tribal": 7946,
      "meditation": 7947,
      "systematic": 7948,
      "calm": 7949,
      "ipod": 7950,
      "highlight": 7951,
      "understands": 7952,
      "founder": 7953,
      "parks": 7954,
      "viscer": 7955,
      "agos": 7956,
      "cheating": 7957,
      "1930s": 7958,
      "clothing": 7959,
      "computation": 7960,
      "computational": 7961,
      "farms": 7962,
      "cube": 7963,
      "passive": 7964,
      "voy": 7965,
      "connectivity": 7966,
      "holders": 7967,
      "barbar": 7968,
      "programmers": 7969,
      "expecting": 7970,
      "penis": 7971,
      "microphone": 7972,
      "safely": 7973,
      "origins": 7974,
      "jeopard": 7975,
      "chemist": 7976,
      "sands": 7977,
      "doubled": 7978,
      "activated": 7979,
      "attacked": 7980,
      "periods": 7981,
      "compassionate": 7982,
      "longevity": 7983,
      "authoritarian": 7984,
      "magician": 7985,
      "sufficient": 7986,
      "titles": 7987,
      "detector": 7988,
      "temperatures": 7989,
      "associate": 7990,
      "earliest": 7991,
      "philosophical": 7992,
      "protocell": 7993,
      "randomly": 7994,
      "narratives": 7995,
      "therapies": 7996,
      "dominated": 7997,
      "opinions": 7998,
      "substant": 7999,
      "imagining": 8000,
      "satisfaction": 8001,
      "scenes": 8002,
      "monitoring": 8003,
      "encouraged": 8004,
      "overwhelming": 8005,
      "portraits": 8006,
      "consult": 8007,
      "julia": 8008,
      "inflation": 8009,
      "chromos": 8010,
      "beetle": 8011,
      "initiative": 8012,
      "convenient": 8013,
      "tolerance": 8014,
      "abundance": 8015,
      "improvisation": 8016,
      "administration": 8017,
      "hierarchy": 8018,
      "chimpanzees": 8019,
      "assumed": 8020,
      "brooklyn": 8021,
      "palestinian": 8022,
      "traumatic": 8023,
      "destroying": 8024,
      "enemies": 8025,
      "64": 8026,
      "bj": 8027,
      "cable": 8028,
      "dip": 8029,
      "hint": 8030,
      "jun": 8031,
      "kim": 8032,
      "mitted": 8033,
      "nin": 8034,
      "nast": 8035,
      "naz": 8036,
      "odo": 8037,
      "pap": 8038,
      "tangible": 8039,
      "uh": 8040,
      "vivid": 8041,
      "wk": 8042,
      "zler": 8043,
      "infant": 8044,
      "rey": 8045,
      "retain": 8046,
      "itative": 8047,
      "orang": 8048,
      "orgas": 8049,
      "lewis": 8050,
      "omin": 8051,
      "heres": 8052,
      "utili": 8053,
      "ching": 8054,
      "moore": 8055,
      "decor": 8056,
      "cement": 8057,
      "usa": 8058,
      "usha": 8059,
      "iff": 8060,
      "trapped": 8061,
      "mapped": 8062,
      "export": 8063,
      "plum": 8064,
      "urge": 8065,
      "ila": 8066,
      "odi": 8067,
      "likelihood": 8068,
      "yeast": 8069,
      "ideology": 8070,
      "apps": 8071,
      "april": 8072,
      "shat": 8073,
      "shor": 8074,
      "shining": 8075,
      "spare": 8076,
      "owning": 8077,
      "boats": 8078,
      "sheer": 8079,
      "distor": 8080,
      "uded": 8081,
      "strings": 8082,
      "holi": 8083,
      "hub": 8084,
      "prev": 8085,
      "kindness": 8086,
      "sier": 8087,
      "realization": 8088,
      "cola": 8089,
      "colom": 8090,
      "stomach": 8091,
      "stolen": 8092,
      "comparing": 8093,
      "biodi": 8094,
      "basking": 8095,
      "nathan": 8096,
      "simon": 8097,
      "cares": 8098,
      "transit": 8099,
      "generosity": 8100,
      "relates": 8101,
      "mala": 8102,
      "graphical": 8103,
      "easiest": 8104,
      "addiction": 8105,
      "regulation": 8106,
      "italian": 8107,
      "responded": 8108,
      "amazed": 8109,
      "tempest": 8110,
      "dancers": 8111,
      "advances": 8112,
      "universes": 8113,
      "paths": 8114,
      "nonviolent": 8115,
      "involving": 8116,
      "petition": 8117,
      "cooling": 8118,
      "promising": 8119,
      "approaching": 8120,
      "favorites": 8121,
      "receiving": 8122,
      "ethiop": 8123,
      "touching": 8124,
      "liza": 8125,
      "fantasy": 8126,
      "hammad": 8127,
      "client": 8128,
      "cleaning": 8129,
      "symphony": 8130,
      "sched": 8131,
      "calculated": 8132,
      "loyal": 8133,
      "parkinson": 8134,
      "catastro": 8135,
      "significance": 8136,
      "greek": 8137,
      "greece": 8138,
      "occurring": 8139,
      "discoveries": 8140,
      "crystal": 8141,
      "1999": 8142,
      "laptops": 8143,
      "streams": 8144,
      "phenomena": 8145,
      "mutations": 8146,
      "platforms": 8147,
      "hacking": 8148,
      "documentary": 8149,
      "teszler": 8150,
      "piles": 8151,
      "spinning": 8152,
      "switched": 8153,
      "assuming": 8154,
      "replacement": 8155,
      "fifty": 8156,
      "installation": 8157,
      "impressive": 8158,
      "pherom": 8159,
      "heavi": 8160,
      "toilets": 8161,
      "vacation": 8162,
      "delhi": 8163,
      "ingredient": 8164,
      "consistent": 8165,
      "saturn": 8166,
      "sarah": 8167,
      "rejected": 8168,
      "alexander": 8169,
      "assignment": 8170,
      "interpretation": 8171,
      "authenticity": 8172,
      "pouring": 8173,
      "diplomacy": 8174,
      "adopted": 8175,
      "refrigerator": 8176,
      "delicious": 8177,
      "virginia": 8178,
      "goliath": 8179,
      "mexican": 8180,
      "abulary": 8181,
      "horses": 8182,
      "rescued": 8183,
      "penetr": 8184,
      "350": 8185,
      "98": 8186,
      "bun": 8187,
      "bother": 8188,
      "cows": 8189,
      "dj": 8190,
      "divid": 8191,
      "gli": 8192,
      "gus": 8193,
      "jh": 8194,
      "kat": 8195,
      "mama": 8196,
      "osome": 8197,
      "pent": 8198,
      "rust": 8199,
      "sions": 8200,
      "vice": 8201,
      "́n": 8202,
      "thals": 8203,
      "ancing": 8204,
      "reput": 8205,
      "tos": 8206,
      "toes": 8207,
      "argent": 8208,
      "weg": 8209,
      "stones": 8210,
      "veil": 8211,
      "beloved": 8212,
      "acious": 8213,
      "hagen": 8214,
      "entering": 8215,
      "lips": 8216,
      "oted": 8217,
      "rogen": 8218,
      "roles": 8219,
      "outs": 8220,
      "lol": 8221,
      "logo": 8222,
      "unde": 8223,
      "supre": 8224,
      "maid": 8225,
      "compos": 8226,
      "ulty": 8227,
      "artif": 8228,
      "node": 8229,
      "managing": 8230,
      "quis": 8231,
      "pox": 8232,
      "coat": 8233,
      "coverage": 8234,
      "spain": 8235,
      "workplace": 8236,
      "ette": 8237,
      "overhead": 8238,
      "overseas": 8239,
      "intact": 8240,
      "counts": 8241,
      "counted": 8242,
      "irect": 8243,
      "fles": 8244,
      "compli": 8245,
      "monu": 8246,
      "corners": 8247,
      "bian": 8248,
      "biol": 8249,
      "creator": 8250,
      "helmet": 8251,
      "archive": 8252,
      "singer": 8253,
      "developers": 8254,
      "attitudes": 8255,
      "friendship": 8256,
      "cript": 8257,
      "topus": 8258,
      "subsid": 8259,
      "processor": 8260,
      "processed": 8261,
      "equations": 8262,
      "nightm": 8263,
      "lingu": 8264,
      "amazingly": 8265,
      "switzer": 8266,
      "follows": 8267,
      "squared": 8268,
      "octopus": 8269,
      "potent": 8270,
      "masses": 8271,
      "sensing": 8272,
      "shortly": 8273,
      "pollo": 8274,
      "pollin": 8275,
      "ethic": 8276,
      "pedest": 8277,
      "johnny": 8278,
      "introduction": 8279,
      "sanitation": 8280,
      "infections": 8281,
      "lifted": 8282,
      "neuroscientist": 8283,
      "secretary": 8284,
      "crossed": 8285,
      "nurture": 8286,
      "cision": 8287,
      "jumping": 8288,
      "blogs": 8289,
      "automobile": 8290,
      "tunis": 8291,
      "boundary": 8292,
      "documented": 8293,
      "accuracy": 8294,
      "estimated": 8295,
      "priorit": 8296,
      "politician": 8297,
      "1984": 8298,
      "shifts": 8299,
      "vocabulary": 8300,
      "obsession": 8301,
      "thrive": 8302,
      "pulse": 8303,
      "belongs": 8304,
      "accounting": 8305,
      "apolog": 8306,
      "acquired": 8307,
      "alike": 8308,
      "wolfram": 8309,
      "privileged": 8310,
      "saturday": 8311,
      "accomplished": 8312,
      "chromosome": 8313,
      "eliminate": 8314,
      "stereotypes": 8315,
      "exposure": 8316,
      "egyptian": 8317,
      "elegant": 8318,
      "neanderthals": 8319,
      "cathedr": 8320,
      "jellyfish": 8321,
      "confronted": 8322,
      "grocery": 8323,
      "congestion": 8324,
      "ambulance": 8325,
      "encyclopedia": 8326,
      "chromosomes": 8327,
      "sierra": 8328,
      "supreme": 8329,
      "switzerland": 8330,
      "96": 8331,
      "cine": 8332,
      "copen": 8333,
      "dare": 8334,
      "dum": 8335,
      "dile": 8336,
      "dumb": 8337,
      "eliza": 8338,
      "hes": 8339,
      "kal": 8340,
      "mund": 8341,
      "oec": 8342,
      "rr": 8343,
      "rag": 8344,
      "sest": 8345,
      "von": 8346,
      "vag": 8347,
      "zip": 8348,
      "ths": 8349,
      "inser": 8350,
      "rev": 8351,
      "retail": 8352,
      "reconstruct": 8353,
      "regenerate": 8354,
      "erotic": 8355,
      "altered": 8356,
      "heating": 8357,
      "melo": 8358,
      "liar": 8359,
      "lize": 8360,
      "chase": 8361,
      "forgive": 8362,
      "arest": 8363,
      "ghters": 8364,
      "mold": 8365,
      "wasted": 8366,
      "irrational": 8367,
      "depos": 8368,
      "deforestation": 8369,
      "unconscious": 8370,
      "rip": 8371,
      "ifer": 8372,
      "cany": 8373,
      "canvas": 8374,
      "cancers": 8375,
      "termin": 8376,
      "consens": 8377,
      "thermal": 8378,
      "max": 8379,
      "actic": 8380,
      "comic": 8381,
      "excess": 8382,
      "useless": 8383,
      "estone": 8384,
      "manner": 8385,
      "graf": 8386,
      "donors": 8387,
      "buff": 8388,
      "bugs": 8389,
      "osex": 8390,
      "muhammad": 8391,
      "syria": 8392,
      "blink": 8393,
      "blings": 8394,
      "clu": 8395,
      "intensity": 8396,
      "siblings": 8397,
      "fulness": 8398,
      "obso": 8399,
      "creatic": 8400,
      "tedglobal": 8401,
      "producers": 8402,
      "famously": 8403,
      "norms": 8404,
      "norweg": 8405,
      "smallest": 8406,
      "publishing": 8407,
      "organizing": 8408,
      "passions": 8409,
      "researching": 8410,
      "chamber": 8411,
      "blocking": 8412,
      "operated": 8413,
      "electrons": 8414,
      "sexually": 8415,
      "bono": 8416,
      "massively": 8417,
      "texture": 8418,
      "literacy": 8419,
      "practicing": 8420,
      "mult": 8421,
      "convicted": 8422,
      "professors": 8423,
      "slaugh": 8424,
      "ridge": 8425,
      "chronic": 8426,
      "measurements": 8427,
      "trusted": 8428,
      "pancreatic": 8429,
      "destination": 8430,
      "clips": 8431,
      "ecology": 8432,
      "squares": 8433,
      "threatening": 8434,
      "calculation": 8435,
      "calculating": 8436,
      "apartments": 8437,
      "variable": 8438,
      "casual": 8439,
      "welfare": 8440,
      "reflected": 8441,
      "occurs": 8442,
      "nico": 8443,
      "honesty": 8444,
      "crypt": 8445,
      "celebrity": 8446,
      "preventing": 8447,
      "detected": 8448,
      "attracted": 8449,
      "terrorists": 8450,
      "quantities": 8451,
      "stimulation": 8452,
      "knees": 8453,
      "occupy": 8454,
      "isolation": 8455,
      "melting": 8456,
      "anxious": 8457,
      "voters": 8458,
      "observations": 8459,
      "knock": 8460,
      "elephants": 8461,
      "branches": 8462,
      "recycling": 8463,
      "elevator": 8464,
      "accomplish": 8465,
      "regulations": 8466,
      "procedures": 8467,
      "preparation": 8468,
      "cousins": 8469,
      "adolescence": 8470,
      "pipeline": 8471,
      "metabolism": 8472,
      "reporter": 8473,
      "dvd": 8474,
      "lebanon": 8475,
      "embodied": 8476,
      "cambodia": 8477,
      "stadium": 8478,
      "tanzania": 8479,
      "arbitr": 8480,
      "jeopardy": 8481,
      "nasty": 8482,
      "biodiversity": 8483,
      "underestim": 8484,
      "copenhagen": 8485,
      "dilem": 8486,
      "oecd": 8487,
      "consensus": 8488,
      "130": 8489,
      "72": 8490,
      "aqu": 8491,
      "bats": 8492,
      "cc": 8493,
      "dirt": 8494,
      "fy": 8495,
      "jenn": 8496,
      "mask": 8497,
      "ores": 8498,
      "pou": 8499,
      "pies": 8500,
      "sizes": 8501,
      "zu": 8502,
      "thread": 8503,
      "resem": 8504,
      "ata": 8505,
      "toll": 8506,
      "enix": 8507,
      "altru": 8508,
      "itable": 8509,
      "ari": 8510,
      "edit": 8511,
      "lethal": 8512,
      "stit": 8513,
      "seren": 8514,
      "seats": 8515,
      "vet": 8516,
      "beam": 8517,
      "hears": 8518,
      "lip": 8519,
      "verts": 8520,
      "forcing": 8521,
      "moz": 8522,
      "deception": 8523,
      "amen": 8524,
      "tering": 8525,
      "trap": 8526,
      "traction": 8527,
      "proceed": 8528,
      "ulations": 8529,
      "exotic": 8530,
      "exagger": 8531,
      "ody": 8532,
      "estate": 8533,
      "residents": 8534,
      "cia": 8535,
      "spat": 8536,
      "brane": 8537,
      "umbs": 8538,
      "iza": 8539,
      "disrup": 8540,
      "disgust": 8541,
      "interior": 8542,
      "turing": 8543,
      "awake": 8544,
      "flick": 8545,
      "monster": 8546,
      "longest": 8547,
      "calend": 8548,
      "earning": 8549,
      "puber": 8550,
      "babwe": 8551,
      "parach": 8552,
      "landing": 8553,
      "2030": 8554,
      "cared": 8555,
      "wonders": 8556,
      "1950s": 8557,
      "generates": 8558,
      "primate": 8559,
      "farther": 8560,
      "farming": 8561,
      "teaches": 8562,
      "lowest": 8563,
      "submit": 8564,
      "banjo": 8565,
      "phoenix": 8566,
      "regain": 8567,
      "harmony": 8568,
      "chains": 8569,
      "couch": 8570,
      "bloom": 8571,
      "metic": 8572,
      "fighters": 8573,
      "distingu": 8574,
      "treaty": 8575,
      "pays": 8576,
      "pathways": 8577,
      "richest": 8578,
      "relief": 8579,
      "memorial": 8580,
      "argued": 8581,
      "explores": 8582,
      "communicating": 8583,
      "woo": 8584,
      "grades": 8585,
      "jean": 8586,
      "terribly": 8587,
      "recei": 8588,
      "expressed": 8589,
      "functioning": 8590,
      "lized": 8591,
      "consuming": 8592,
      "activists": 8593,
      "exceptions": 8594,
      "enterprise": 8595,
      "hunter": 8596,
      "stressed": 8597,
      "infectious": 8598,
      "collaborate": 8599,
      "virtue": 8600,
      "cups": 8601,
      "perspectives": 8602,
      "budgets": 8603,
      "pix": 8604,
      "museums": 8605,
      "scans": 8606,
      "membrane": 8607,
      "reflects": 8608,
      "atomic": 8609,
      "beaten": 8610,
      "entrepreneu": 8611,
      "nanop": 8612,
      "mixing": 8613,
      "laughed": 8614,
      "romance": 8615,
      "matched": 8616,
      "mutual": 8617,
      "selected": 8618,
      "scarce": 8619,
      "emotionally": 8620,
      "snap": 8621,
      "accurately": 8622,
      "missions": 8623,
      "optical": 8624,
      "coding": 8625,
      "storms": 8626,
      "metals": 8627,
      "mesh": 8628,
      "hills": 8629,
      "vegetable": 8630,
      "shifted": 8631,
      "regrets": 8632,
      "votes": 8633,
      "somal": 8634,
      "miracles": 8635,
      "jerusal": 8636,
      "talented": 8637,
      "discussions": 8638,
      "fruits": 8639,
      "illustrates": 8640,
      "consumed": 8641,
      "metabolic": 8642,
      "olympic": 8643,
      "absence": 8644,
      "anesthesia": 8645,
      "cigarette": 8646,
      "sylvia": 8647,
      "approximately": 8648,
      "glorious": 8649,
      "enjoying": 8650,
      "leonardo": 8651,
      "zimbabwe": 8652,
      "cosmic": 8653,
      "clinton": 8654,
      "visceral": 8655,
      "ushahid": 8656,
      "obsolete": 8657,
      "entrepreneurial": 8658,
      "jerusalem": 8659,
      "97": 8660,
      "aired": 8661,
      "chad": 8662,
      "cass": 8663,
      "ego": 8664,
      "eigh": 8665,
      "fence": 8666,
      "gw": 8667,
      "hed": 8668,
      "lph": 8669,
      "oak": 8670,
      "qatar": 8671,
      "rant": 8672,
      "sms": 8673,
      "sween": 8674,
      "uit": 8675,
      "ule": 8676,
      "ww": 8677,
      "thand": 8678,
      "intric": 8679,
      "anut": 8680,
      "resur": 8681,
      "reforms": 8682,
      "tock": 8683,
      "towel": 8684,
      "ised": 8685,
      "envision": 8686,
      "arise": 8687,
      "archa": 8688,
      "leone": 8689,
      "leash": 8690,
      "leopard": 8691,
      "weed": 8692,
      "acou": 8693,
      "solo": 8694,
      "sovere": 8695,
      "heter": 8696,
      "mead": 8697,
      "chant": 8698,
      "rode": 8699,
      "loan": 8700,
      "loses": 8701,
      "petal": 8702,
      "peanut": 8703,
      "decent": 8704,
      "unfair": 8705,
      "tear": 8706,
      "traces": 8707,
      "sures": 8708,
      "prope": 8709,
      "exquis": 8710,
      "ura": 8711,
      "oking": 8712,
      "peoples": 8713,
      "whoa": 8714,
      "thinkers": 8715,
      "tibet": 8716,
      "coin": 8717,
      "spons": 8718,
      "bral": 8719,
      "umines": 8720,
      "disagree": 8721,
      "guards": 8722,
      "blah": 8723,
      "intend": 8724,
      "hoo": 8725,
      "bery": 8726,
      "tsun": 8727,
      "epi": 8728,
      "observing": 8729,
      "contamin": 8730,
      "marco": 8731,
      "margin": 8732,
      "drunk": 8733,
      "ireland": 8734,
      "favel": 8735,
      "compens": 8736,
      "bikes": 8737,
      "biased": 8738,
      "shoulders": 8739,
      "fungi": 8740,
      "lester": 8741,
      "naive": 8742,
      "decides": 8743,
      "venue": 8744,
      "natives": 8745,
      "curves": 8746,
      "1950": 8747,
      "generative": 8748,
      "minded": 8749,
      "closest": 8750,
      "expon": 8751,
      "culo": 8752,
      "addy": 8753,
      "modeling": 8754,
      "reasoning": 8755,
      "publicly": 8756,
      "atories": 8757,
      "shoe": 8758,
      "hugely": 8759,
      "mustache": 8760,
      "greenland": 8761,
      "meets": 8762,
      "drops": 8763,
      "textbooks": 8764,
      "posters": 8765,
      "dreamed": 8766,
      "slept": 8767,
      "explored": 8768,
      "remix": 8769,
      "multin": 8770,
      "slum": 8771,
      "risky": 8772,
      "releases": 8773,
      "babylon": 8774,
      "bloody": 8775,
      "jews": 8776,
      "skilled": 8777,
      "countless": 8778,
      "confess": 8779,
      "visualize": 8780,
      "visualization": 8781,
      "christians": 8782,
      "acceptable": 8783,
      "container": 8784,
      "contributed": 8785,
      "crowds": 8786,
      "catching": 8787,
      "targeted": 8788,
      "taxes": 8789,
      "mammal": 8790,
      "coded": 8791,
      "priority": 8792,
      "adaptation": 8793,
      "remotely": 8794,
      "appreciation": 8795,
      "weakness": 8796,
      "novelty": 8797,
      "cracks": 8798,
      "negotiate": 8799,
      "binary": 8800,
      "paradise": 8801,
      "concentrated": 8802,
      "poems": 8803,
      "dishes": 8804,
      "branch": 8805,
      "inevitably": 8806,
      "frightened": 8807,
      "staircase": 8808,
      "palestine": 8809,
      "oriented": 8810,
      "controversy": 8811,
      "parasite": 8812,
      "mammography": 8813,
      "philip": 8814,
      "legitimate": 8815,
      "settled": 8816,
      "philanthropy": 8817,
      "shrink": 8818,
      "diamond": 8819,
      "geometry": 8820,
      "envelope": 8821,
      "treasure": 8822,
      "canadian": 8823,
      "orgasm": 8824,
      "biolumines": 8825,
      "puberty": 8826,
      "ushahidi": 8827,
      "sweeney": 8828,
      "sovereign": 8829,
      "favelas": 8830,
      "multinational": 8831,
      "140": 8832,
      "86": 8833,
      "aar": 8834,
      "athan": 8835,
      "aunt": 8836,
      "bunk": 8837,
      "coper": 8838,
      "cattle": 8839,
      "dome": 8840,
      "fus": 8841,
      "fans": 8842,
      "gil": 8843,
      "ipped": 8844,
      "jas": 8845,
      "kong": 8846,
      "kton": 8847,
      "khan": 8848,
      "lers": 8849,
      "oll": 8850,
      "rings": 8851,
      "rican": 8852,
      "tiles": 8853,
      "vable": 8854,
      "vending": 8855,
      "wides": 8856,
      "yves": 8857,
      "thail": 8858,
      "inn": 8859,
      "reactor": 8860,
      "atro": 8861,
      "oning": 8862,
      "alga": 8863,
      "alarm": 8864,
      "itz": 8865,
      "itar": 8866,
      "editor": 8867,
      "league": 8868,
      "stef": 8869,
      "behalf": 8870,
      "aced": 8871,
      "heh": 8872,
      "metric": 8873,
      "roger": 8874,
      "keley": 8875,
      "peers": 8876,
      "nether": 8877,
      "unting": 8878,
      "unseen": 8879,
      "rives": 8880,
      "opposition": 8881,
      "ading": 8882,
      "conscience": 8883,
      "contem": 8884,
      "configur": 8885,
      "teem": 8886,
      "perpe": 8887,
      "expose": 8888,
      "arten": 8889,
      "sometime": 8890,
      "oked": 8891,
      "sav": 8892,
      "mankind": 8893,
      "coch": 8894,
      "endless": 8895,
      "pron": 8896,
      "etal": 8897,
      "centimeter": 8898,
      "berculo": 8899,
      "berkeley": 8900,
      "huh": 8901,
      "pread": 8902,
      "marvel": 8903,
      "offs": 8904,
      "triple": 8905,
      "trivial": 8906,
      "carib": 8907,
      "aken": 8908,
      "coln": 8909,
      "monday": 8910,
      "tedsters": 8911,
      "matches": 8912,
      "famine": 8913,
      "networking": 8914,
      "everest": 8915,
      "generic": 8916,
      "relatives": 8917,
      "headline": 8918,
      "projection": 8919,
      "bangl": 8920,
      "charges": 8921,
      "regional": 8922,
      "register": 8923,
      "laun": 8924,
      "vocate": 8925,
      "politan": 8926,
      "rises": 8927,
      "machin": 8928,
      "fired": 8929,
      "distances": 8930,
      "operates": 8931,
      "innovate": 8932,
      "sensation": 8933,
      "expectation": 8934,
      "textbook": 8935,
      "fails": 8936,
      "eats": 8937,
      "alongside": 8938,
      "weekend": 8939,
      "stays": 8940,
      "exploit": 8941,
      "experimenting": 8942,
      "tuberculo": 8943,
      "sends": 8944,
      "revolutions": 8945,
      "copies": 8946,
      "feeds": 8947,
      "revolutionary": 8948,
      "refuse": 8949,
      "emergence": 8950,
      "lama": 8951,
      "antibodies": 8952,
      "sticky": 8953,
      "stressful": 8954,
      "bati": 8955,
      "titan": 8956,
      "laboratories": 8957,
      "discussing": 8958,
      "hoped": 8959,
      "surgeries": 8960,
      "lincoln": 8961,
      "philosophers": 8962,
      "presidential": 8963,
      "deserves": 8964,
      "corrupt": 8965,
      "geography": 8966,
      "adapted": 8967,
      "automatic": 8968,
      "christo": 8969,
      "mutation": 8970,
      "analyzed": 8971,
      "plato": 8972,
      "pilots": 8973,
      "castle": 8974,
      "accepting": 8975,
      "demonstrated": 8976,
      "folk": 8977,
      "suspicious": 8978,
      "shelves": 8979,
      "browser": 8980,
      "intimacy": 8981,
      "julian": 8982,
      "jonathan": 8983,
      "promises": 8984,
      "rubber": 8985,
      "alphabet": 8986,
      "deployed": 8987,
      "clarity": 8988,
      "compounds": 8989,
      "abundant": 8990,
      "cabine": 8991,
      "inventor": 8992,
      "oyster": 8993,
      "invasive": 8994,
      "defeat": 8995,
      "tropical": 8996,
      "statistical": 8997,
      "recruit": 8998,
      "brutal": 8999,
      "stigma": 9000,
      "steady": 9001,
      "theoretical": 9002,
      "minerals": 9003,
      "remittances": 9004,
      "warrior": 9005,
      "ethiopia": 9006,
      "somalia": 9007,
      "widespread": 9008,
      "thailand": 9009,
      "netherlands": 9010,
      "banglades": 9011,
      "tuberculosis": 9012,
      "34": 9013,
      "77": 9014,
      "cort": 9015,
      "eera": 9016,
      "gical": 9017,
      "hc": 9018,
      "jur": 9019,
      "kh": 9020,
      "mph": 9021,
      "nons": 9022,
      "pier": 9023,
      "plied": 9024,
      "sive": 9025,
      "tink": 9026,
      "tically": 9027,
      "yn": 9028,
      "inity": 9029,
      "incar": 9030,
      "inburgh": 9031,
      "retr": 9032,
      "restr": 9033,
      "rection": 9034,
      "tokyo": 9035,
      "ingly": 9036,
      "arche": 9037,
      "edinburgh": 9038,
      "lemon": 9039,
      "stum": 9040,
      "seaw": 9041,
      "sevent": 9042,
      "semi": 9043,
      "lli": 9044,
      "verted": 9045,
      "lobby": 9046,
      "ironic": 9047,
      "dem": 9048,
      "amput": 9049,
      "advocate": 9050,
      "trau": 9051,
      "acted": 9052,
      "composition": 9053,
      "proli": 9054,
      "ulu": 9055,
      "igen": 9056,
      "saudi": 9057,
      "whoever": 9058,
      "illumin": 9059,
      "tian": 9060,
      "spar": 9061,
      "sput": 9062,
      "evapor": 9063,
      "pleased": 9064,
      "iva": 9065,
      "owns": 9066,
      "phthal": 9067,
      "itty": 9068,
      "iceberg": 9069,
      "disput": 9070,
      "displays": 9071,
      "overnight": 9072,
      "siber": 9073,
      "carneg": 9074,
      "timing": 9075,
      "serves": 9076,
      "bial": 9077,
      "shaping": 9078,
      "versary": 9079,
      "powerpoint": 9080,
      "examine": 9081,
      "kidding": 9082,
      "venice": 9083,
      "visiting": 9084,
      "patience": 9085,
      "cyn": 9086,
      "transis": 9087,
      "1900": 9088,
      "greed": 9089,
      "primates": 9090,
      "compute": 9091,
      "valve": 9092,
      "trait": 9093,
      "spacecraft": 9094,
      "pops": 9095,
      "charities": 9096,
      "legally": 9097,
      "listed": 9098,
      "educating": 9099,
      "scientifically": 9100,
      "kenned": 9101,
      "pression": 9102,
      "grammar": 9103,
      "volcano": 9104,
      "couples": 9105,
      "filmed": 9106,
      "distinction": 9107,
      "stealing": 9108,
      "swing": 9109,
      "mustard": 9110,
      "freak": 9111,
      "appearing": 9112,
      "fluctu": 9113,
      "jordan": 9114,
      "luther": 9115,
      "planting": 9116,
      "adelph": 9117,
      "posture": 9118,
      "18th": 9119,
      "pencil": 9120,
      "beside": 9121,
      "picks": 9122,
      "tickets": 9123,
      "copper": 9124,
      "copying": 9125,
      "mites": 9126,
      "slower": 9127,
      "cameron": 9128,
      "approached": 9129,
      "critically": 9130,
      "jewel": 9131,
      "salary": 9132,
      "fairness": 9133,
      "territory": 9134,
      "ethics": 9135,
      "refused": 9136,
      "starbucks": 9137,
      "subjective": 9138,
      "multiply": 9139,
      "conceptual": 9140,
      "screening": 9141,
      "improvements": 9142,
      "participating": 9143,
      "loads": 9144,
      "collaborator": 9145,
      "strikes": 9146,
      "halls": 9147,
      "continuously": 9148,
      "neglect": 9149,
      "protocol": 9150,
      "reflective": 9151,
[...]
